{"version":"1.0","truncation":null,"padding":null,"added_tokens":[{"id":0,"special":true,"content":"<pad>","single_word":false,"lstrip":false,"rstrip":false,"normalized":false},{"id":1,"special":true,"content":"<unk>","single_word":false,"lstrip":false,"rstrip":false,"normalized":false},{"id":2,"special":true,"content":"<cs>","single_word":false,"lstrip":false,"rstrip":false,"normalized":false},{"id":3,"special":true,"content":"</cs>","single_word":false,"lstrip":false,"rstrip":false,"normalized":false},{"id":4,"special":true,"content":"<CS>","single_word":false,"lstrip":false,"rstrip":false,"normalized":false},{"id":5,"special":true,"content":"</CS>","single_word":false,"lstrip":false,"rstrip":false,"normalized":false},{"id":6,"special":true,"content":"<java>","single_word":false,"lstrip":false,"rstrip":false,"normalized":false},{"id":7,"special":true,"content":"</java>","single_word":false,"lstrip":false,"rstrip":false,"normalized":false},{"id":8,"special":true,"content":"<JAVA>","single_word":false,"lstrip":false,"rstrip":false,"normalized":false},{"id":9,"special":true,"content":"</JAVA>","single_word":false,"lstrip":false,"rstrip":false,"normalized":false},{"id":10,"special":true,"content":"<cl>","single_word":false,"lstrip":false,"rstrip":false,"normalized":false}],"normalizer":null,"pre_tokenizer":{"type":"Metaspace","replacement":"▁","add_prefix_space":true},"post_processor":null,"decoder":null,"model":{"type":"BPE","dropout":null,"unk_token":"<unk>","continuing_subword_prefix":"$$","end_of_word_suffix":null,"fuse_unk":false,"vocab":{"<pad>":0,"<unk>":1,"<cs>":2,"</cs>":3,"<CS>":4,"</CS>":5,"<java>":6,"</java>":7,"<JAVA>":8,"</JAVA>":9,"<cl>":10,"\n":11,"!":12,"\"":13,"#":14,"$":15,"%":16,"&":17,"'":18,"(":19,")":20,"*":21,"+":22,",":23,"-":24,".":25,"/":26,"0":27,"1":28,"2":29,"3":30,"4":31,"5":32,"6":33,"7":34,"8":35,"9":36,":":37,";":38,"<":39,"=":40,">":41,"?":42,"@":43,"A":44,"B":45,"C":46,"D":47,"E":48,"F":49,"G":50,"H":51,"I":52,"J":53,"K":54,"L":55,"M":56,"N":57,"O":58,"P":59,"Q":60,"R":61,"S":62,"T":63,"U":64,"V":65,"W":66,"X":67,"Y":68,"Z":69,"[":70,"\\":71,"]":72,"^":73,"_":74,"a":75,"b":76,"c":77,"d":78,"e":79,"f":80,"g":81,"h":82,"i":83,"j":84,"k":85,"l":86,"m":87,"n":88,"o":89,"p":90,"q":91,"r":92,"s":93,"t":94,"u":95,"v":96,"w":97,"x":98,"y":99,"z":100,"{":101,"|":102,"}":103,"~":104,"à":105,"á":106,"â":107,"ä":108,"å":109,"é":110,"ê":111,"ì":112,"í":113,"î":114,"ï":115,"ò":116,"ó":117,"ô":118,"ö":119,"ù":120,"ú":121,"û":122,"ü":123,"а":124,"е":125,"и":126,"н":127,"о":128,"щ":129,"ъ":130,"я":131,"▁":132,"$$P":133,"$$u":134,"$$r":135,"$$c":136,"$$h":137,"$$a":138,"$$s":139,"$$e":140,"$$R":141,"$$v":142,"$$d":143,"$$C":144,"$$N":145,"$$o":146,"$$O":147,"$$f":148,"$$i":149,"$$n":150,"$$g":151,"$$p":152,"$$U":153,"$$m":154,"$$l":155,"$$.":156,"$$I":157,"$$t":158,"$$;":159,"$$\n":160,"$$x":161,"$$)":162,"$$}":163,"$$D":164,"$$S":165,"$$T":166,"$$k":167,"$$(":168,"$$b":169,"$$j":170,"$$q":171,"$$M":172,"$$z":173,"$$[":174,"$$]":175,"$$W":176,"$$E":177,"$$<":178,"$$>":179,"$$,":180,"$$L":181,"$$A":182,"$$y":183,"$$0":184,"$$3":185,"$$6":186,"$$:":187,"$$_":188,"$$Y":189,"$$V":190,"$$B":191,"$$+":192,"$$!":193,"$$G":194,"$$\"":195,"$$1":196,"$$H":197,"$$F":198,"$$Q":199,"$$=":200,"$$2":201,"$$|":202,"$$w":203,"$$\\":204,"$$/":205,"$$-":206,"$$K":207,"$$'":208,"$$*":209,"$$4":210,"$$#":211,"$$J":212,"$$7":213,"$$?":214,"$${":215,"$$X":216,"$$~":217,"$$5":218,"$$@":219,"$$Z":220,"$$â":221,"$$&":222,"$$8":223,"$$9":224,"$$%":225,"$$$":226,"$$ú":227,"$$^":228,"$$é":229,"$$е":230,"$$н":231,"$$ï":232,"$$û":233,"$$и":234,"$$щ":235,"$$а":236,"$$я":237,"$$ê":238,"$$ò":239,"$$å":240,"$$ü":241,"$$ù":242,"$$ó":243,"$$á":244,"$$í":245,"$$ä":246,"$$î":247,"$$à":248,"$$ô":249,"$$ì":250,"$$о":251,"$$ö":252,"$$ъ":253,"$$es":254,"$$;\n":255,"$$re":256,"$$on":257,"$$er":258,"$$in":259,"$$ti":260,"$$);\n":261,"$$al":262,"▁=":263,"$$te":264,"▁{":265,"$$tion":266,"▁{\n":267,"$$qu":268,"$$est":269,"$$li":270,"$$quest":271,"$$ar":272,"▁re":273,"$$st":274,"$$et":275,"$$en":276,"▁p":277,"$$ub":278,"$$tu":279,"$$Re":280,"$$lic":281,"$$In":282,"$$or":283,"$$ublic":284,"▁public":285,"$$se":286,"▁o":287,"$$ption":288,"$$rn":289,"$$turn":290,"▁return":291,"$$le":292,"$$an":293,"$$ing":294,"$$ce":295,"$$Res":296,"$$th":297,"$$sh":298,"▁n":299,"$$ptions":300,"$$St":301,"$$ex":302,"$$ate":303,"$$ri":304,"▁v":305,"▁(":306,"▁b":307,"$$);\n}":308,"$$Request":309,"$$ec":310,"▁i":311,"$$int":312,"$$all":313,"$$pon":314,"$$ring":315,"$$Respon":316,"$$Response":317,"$$aller":318,"$$arsh":319,"$$ro":320,"$$arshaller":321,"▁options":322,"$$ul":323,"$$()":324,"▁}":325,"▁}\n":326,"$$ew":327,"$$am":328,"$$at":329,"▁new":330,"$$ok":331,"$$fi":332,"▁s":333,"$$el":334,"$$(re":335,"$$ch":336,"$$ut":337,"$$ent":338,"$$String":339,"▁request":340,"$$stan":341,"$$is":342,"$$(request":343,"$$ff":344,"$$Ex":345,"$$();\n":346,"$$Instan":347,"▁if":348,"▁c":349,"$$d(":350,"$$Instance":351,"▁th":352,"▁int":353,"$$;\n}":354,"$$Un":355,"$$Co":356,"▁In":357,"$$lo":358,"$$de":359,"$$ter":360,"$$alu":361,"▁D":362,"$$ecu":363,"▁f":364,"$$Get":365,"$$dex":366,"$$get":367,"$$ap":368,"$$rib":369,"$$it":370,"$$ir":371,"$$ra":372,"$$un":373,"$$vok":374,"$$voke":375,"▁+":376,"$$um":377,"$$Unm":378,"$$il":379,"$$Marshaller":380,"▁Invoke":381,"$$Instance;\n":382,"$$.Instance;\n":383,"$$RequestMarshaller":384,"$$ResponseUnm":385,"▁options.":386,"▁request)":387,"$$ResponseUnmarshaller":388,"$$ame":389,"$$ult":390,"▁\"":391,"$$ist":392,"$$ad":393,"$$pen":394,"$$si":395,"▁0":396,"$$esc":397,"$$up":398,"$$tual":399,"▁st":400,"$$ribe":401,"$$irtual":402,"$$escribe":403,"$$id":404,"$$Con":405,"▁virtual":406,"$$ation":407,"$$ffer":408,"$$List":409,"$$pend(":410,"$$ck":411,"$$uffer":412,"▁t":413,"$$iz":414,"▁d":415,"$$reate":416,"▁in":417,"$$alue":418,"▁this":419,"$$Index":420,"$$ord":421,"$$ore":422,"$$ma":423,"$$ol":424,"$$row":425,"$$eld":426,"$$eng":427,"$$set":428,"$$lete":429,"$$ength":430,"$$ull":431,"$$ver":432,"$$entEx":433,"▁String":434,"▁C":435,"$$Name":436,"$$ge":437,"$$mp":438,"$$Rec":439,"▁ex":440,"$$De":441,"$$.A":442,"▁S":443,"$$ception":444,"$$En":445,"$$ab":446,"$$ize":447,"$$ort":448,"$$ect":449,"▁Get":450,"$$s.":451,"$$res":452,"$$s(":453,"▁==":454,"$$Cli":455,"$$as":456,"$$oc":457,"$$Options":458,"$$yte":459,"$$Result":460,"▁null":461,"▁_":462,"▁be":463,"$$To":464,"▁this.":465,"▁l":466,"$$bj":467,"$$ffset":468,"$$unt":469,"$$ecution":470,"$$ot":471,"▁var":472,"$$field":473,"$$fore":474,"$$ray":475,"$$ecute":476,"$$art":477,"$$oid":478,"▁void":479,"$$Sh":480,"$$[]":481,"$$(request);\n}":482,"▁execute":483,"▁before":484,"$$ClientEx":485,"$$(request);\n":486,"$$Options();\n":487,"$$Response>":488,"▁options);\n}":489,"$$(request,":490,"▁Invoke<":491,"▁InvokeOptions();\n":492,"$$RequestMarshaller.Instance;\n":493,"▁options.RequestMarshaller":494,"▁options.ResponseUnmarshaller":495,"$$ResponseUnmarshaller.Instance;\n":496,"$$ecution(request);\n":497,"▁beforeClientEx":498,"$$Response>(request,":499,"▁beforeClientExecution(request);\n":500,"$$Up":501,"$$put":502,"$$Ev":503,"$$Id":504,"$$roup":505,"$$ed":506,"$$date":507,"$$yp":508,"$$ur":509,"$$orm":510,"▁<":511,"$$od":512,"▁throw":513,"$$Record":514,"▁get":515,"$$po":516,"▁m":517,"▁Describe":518,"$$Po":519,"$$Exception":520,"$$ase":521,"$$\");\n":522,"$$lock":523,"$$Ar":524,"$$Group":525,"$$Pro":526,"$$ct":527,"$$bject":528,"$$ild":529,"$$oken":530,"$$verri":531,"$$verride":532,"$$Value":533,"$$Update":534,"$$pend(\"":535,"$$ty":536,"$$ment":537,"▁De":538,"$$ata":539,"$$.Ap":540,"$$.get":541,"▁override":542,"$$ction":543,"$$ype":544,"$$arg":545,"$$Ro":546,"$$.ap":547,"$$Ch":548,"$$co":549,"▁buffer":550,"$$ext":551,"▁!":552,"$$(int":553,"▁>":554,"▁List":555,"$$(\"":556,"$$fig":557,"$$Bu":558,"$$ser":559,"$$Qu":560,"$$able":561,"$$ream":562,"▁-":563,"$$ey":564,"$$Set":565,"$$atch":566,"$$ve":567,"$$sion":568,"▁bo":569,"$$ces":570,"$$Fi":571,"▁Create":572,"$$ry":573,"$$Buffer":574,"▁!=":575,"▁I":576,"$$();\n}":577,"▁1":578,"$$Config":579,"▁Delete":580,"$$Length":581,"$$Count":582,"$$ati":583,"$$++":584,"$$At":585,"$$Ref":586,"$$field_":587,"▁j":588,"$$))":589,"$$ren":590,"$$Stream":591,"▁out":592,"$$Build":593,"$$tes":594,"$$Cl":595,"$$ytes":596,"$$Type":597,"$$rite":598,"$$Size":599,"$$ong":600,"▁w":601,"$$ery":602,"$$Col":603,"$$Token":604,"▁}\n}":605,"$$eet":606,"▁set":607,"$$ue":608,"▁M":609,"$$va":610,"$$s,":611,"$$s)":612,"$$Describe":613,"$$Offset":614,"▁&":615,"▁r":616,"$$ator":617,"$$Builder":618,"$$per":619,"$$ta":620,"$$\",":621,"$$string":622,"$$Array":623,"$$s[":624,"$$Object":625,"$$tem":626,"▁e":627,"$$ust":628,"$$Read":629,"$$inal":630,"▁P":631,"$$sRequest":632,"$$end":633,"$$Form":634,"▁string":635,"▁A":636,"▁for":637,"$$length":638,"▁null)":639,"$$Fil":640,"$$ig":641,"$$age":642,"$$Delete":643,"$$la":644,"$$Create":645,"$$Eval":646,"$$ule":647,"$$erm":648,"$$if":649,"$$Query":650,"$$atic":651,"$$oub":652,"$$ode":653,"$$ouble":654,"$$Short":655,"▁el":656,"$$sition":657,"$$mit":658,"$$End":659,"▁res":660,"$$tern":661,"$$main":662,"$$String()":663,"$$alse":664,"$$(b":665,"$$ole":666,"$$ava":667,"$$fic":668,"$$ay":669,"▁static":670,"$$ath":671,"$$ber":672,"$$our":673,"▁else":674,"$$Lo":675,"$$ell":676,"$$ory":677,"$$Row":678,"$$ac":679,"$$rc":680,"$$Par":681,"$$Data":682,"$$ack":683,"$$ork":684,"$$and":685,"▁0)":686,"$$to":687,"$$olean":688,"▁sb":689,"$$er.":690,"$$alues":691,"▁B":692,"$$char":693,"$$Filter":694,"▁po":695,"$$ach":696,"$$ava.":697,"▁false":698,"$$tex":699,"$$.Append(\"":700,"▁StringBuilder":701,"$$rent":702,"▁(int":703,"$$ration":704,"$$dd":705,"▁N":706,"$$\\n":707,"$$text":708,"▁Update":709,"$$Ac":710,"$$ource":711,"$$val":712,"$$Com":713,"▁to":714,"$$enti":715,"$$array":716,"$$trib":717,"$$red":718,"▁index":719,"▁sh":720,"$$til":721,"▁byte":722,"▁value":723,"$$umber":724,"$$ten":725,"$$eri":726,"$$.append(\"":727,"$$];\n":728,"$$Term":729,"$$1.":730,"$$rue":731,"$$sage":732,"▁co":733,"▁Re":734,"$$bo":735,"$$Key":736,"$$Of":737,"$$ted":738,"▁src":739,"$$ran":740,"$$mo":741,"▁field_":742,"▁arg":743,"▁java.":744,"▁li":745,"$$(String":746,"$$ll":747,"▁offset":748,"$$ute":749,"$$umn":750,"$$ass":751,"$$uration":752,"$$())":753,"$$Cell":754,"▁final":755,"$$Start":756,"$$.append(":757,"▁E":758,"$$way":759,"▁result":760,"$$uster":761,"$$ag":762,"$$rom":763,"$$Int":764,"$$ash":765,"$$ys":766,"$$Configuration":767,"$$ror":768,"$$ange":769,"$$Cluster":770,"$$Format":771,"▁|":772,"▁:":773,"$$Gate":774,"$$Gateway":775,"$$Jo":776,"$$one":777,"$$.length":778,"$$Text":779,"$$Char":780,"$$Attrib":781,"$$Index,":782,"$$Polic":783,"$$Field":784,"$$py":785,"$$fa":786,"$$this":787,"$$max":788,"$$shot":789,"▁long":790,"$$.Append(":791,"$$Vp":792,"$$nap":793,"$$ystem":794,"$$oci":795,"$$napshot":796,"$$qual":797,"$$.Length":798,"$$(n":799,"$$Map":800,"▁start":801,"$$DB":802,"$$State":803,"$$om":804,"▁bool":805,"$$:\n":806,"▁true":807,"▁boolean":808,"▁oth":809,"$$i]":810,"$$Rule":811,"$$Sheet":812,"$$ree":813,"$$Block":814,"$$Out":815,"$$io":816,"$$.re":817,"▁k":818,"$$ast":819,"▁case":820,"$$Byte":821,"$$Mod":822,"$$im":823,"$$Doc":824,"$$uf":825,"▁de":826,"$$eter":827,"$$ameter":828,"$$gum":829,"$$Write":830,"$$index":831,"▁&&":832,"$$Bo":833,"$$move":834,"$$Bytes":835,"$$ify":836,"$$entException":837,"$$\\n\");\n":838,"▁0;":839,"▁h":840,"$$Sub":841,"$$Ap":842,"$$An":843,"$$++)":844,"▁false;\n":845,"$$ion":846,"$$Tran":847,"$$.Get":848,"$$Job":849,"$$und":850,"$$File":851,"$$ID":852,"$$(d":853,"$$Policy":854,"$$Se":855,"$$s);\n":856,"$$As":857,"▁L":858,"$$pt":859,"$$ctory":860,"$$urrent":861,"$$gumentException":862,"$$ersion":863,"$$rea":864,"$$Column":865,"▁is":866,"$$Work":867,"$$eck":868,"$$Snapshot":869,"▁a":870,"▁System":871,"$$IN":872,"$$.To":873,"▁block":874,"$$(string":875,"▁len":876,"▁\")":877,"$$quals(":878,"▁0;\n":879,"$$ow":880,"$$pa":881,"$$ian":882,"$$Comp":883,"$$count":884,"$$ine":885,"$$sed":886,"▁sup":887,"$$pos":888,"$$er(":889,"$$low":890,"$$leg":891,"$$Conn":892,"$$op":893,"$$Version":894,"$$Ent":895,"$$ink":896,"$$ache":897,"$$Met":898,"▁To":899,"$$essage":900,"$$omain":901,"▁0,":902,"$$Fa":903,"$$value":904,"$$io.":905,"$$For":906,"$$ValueEval":907,"$$ice":908,"$$));\n":909,"$$ze":910,"$$());\n":911,"$$Trans":912,"$$ity":913,"$$Hex":914,"$$ire":915,"▁fi":916,"$$fo":917,"$$fication":918,"▁||":919,"$$ociate":920,"$$erv":921,"$$Number":922,"$$Identi":923,"$$sResponse":924,"$$From":925,"▁end":926,"$$SS":927,"$$terator":928,"$$til.":929,"$$TE":930,"$$cess":931,"$$rror":932,"▁field":933,"▁i++)":934,"$$User":935,"$$Add":936,"$$mpl":937,"$$ary":938,"$$ula":939,"$$Entry":940,"$$sResult":941,"$$Input":942,"$$Evalu":943,"$$Tree":944,"▁ch":945,"▁(!":946,"$$Instances":947,"$$size":948,"▁>=":949,"▁Set":950,"▁create":951,"$$ask":952,"$$ames":953,"$$\")":954,"▁base":955,"$$ind":956,"$$No":957,"▁double":958,"$$ic":959,"$$Sc":960,"$$String();\n}":961,"$$term":962,"$$Domain":963,"$$.to":964,"$$Vpc":965,"▁R":966,"▁2":967,"▁H":968,"$$(o":969,"$$ont":970,"$$plic":971,"$$gumentException(\"":972,"$$ip":973,"$$.w":974,"$$j_":975,"$$tle":976,"$$cher":977,"$$loat":978,"▁?":979,"$$s(request);\n}":980,"$$sRequestMarshaller.Instance;\n":981,"$$sResponseUnmarshaller.Instance;\n":982,"$$sResponse>(request,":983,"$$Sp":984,"$$Tag":985,"▁+=":986,"$$Parameter":987,"$$Node":988,"▁@":989,"$$gn":990,"$$utes":991,"▁null;\n":992,"$$Event":993,"$$point":994,"$$Output":995,"▁size":996,"▁char":997,"$$.c":998,"▁F":999,"$$(Delete":1000,"$$1)":1001,"▁'":1002,"$$1_":1003,"$$(Get":1004,"▁other":1005,"$$yn":1006,"$$ittle":1007,"$$Endian":1008,"$$ittleEndian":1009,"$$port":1010,"▁values":1011,"$$fault":1012,"$$stance":1013,"▁describe":1014,"▁array":1015,"$$(arg":1016,"$$sc":1017,"$$T_":1018,"▁name":1019,"$$On":1020,"$$AL":1021,"$$erial":1022,"▁Ch":1023,"$$Type.":1024,"$$maining":1025,"$$(Create":1026,"$$ision":1027,"▁*":1028,"$$Task":1029,"$$ape":1030,"$$plication":1031,"$$Info":1032,"$$attern":1033,"$$ann":1034,"$$Cache":1035,"$$RE":1036,"$$ith":1037,"$$nio.":1038,"$$tain":1039,"▁true;\n":1040,"▁)":1041,"$$Ima":1042,"$$igh":1043,"▁(b":1044,"$$Short(":1045,"$$reak":1046,"▁this;\n}":1047,"▁Array":1048,"$$Ph":1049,"$$fix":1050,"$$ard":1051,"$$ile":1052,"$$code":1053,"$$legal":1054,"$$tg":1055,"$$SSF":1056,"$$cell":1057,"▁ValueEval":1058,"$$Te":1059,"$$++]":1060,"▁list":1061,"▁max":1062,"$$llegal":1063,"$$.N":1064,"$$Log":1065,"$$load":1066,"$$Ass":1067,"$$sert":1068,"$$Endpoint":1069,"$$List<":1070,"$$Range":1071,"$$Oper":1072,"$$.read":1073,"$$Git":1074,"$$Exception(\"":1075,"$$[i]":1076,"$$Identity":1077,"$$tim":1078,"▁buffer.Append(\"":1079,"▁con":1080,"$$Names":1081,"$$position":1082,"$$Message":1083,"$$Dete":1084,"$$OR":1085,"▁buf":1086,"$$Copy":1087,"$$Templ":1088,"$$Path":1089,"$$alan":1090,"$$ord(":1091,"▁se":1092,"$$name":1093,"$$Sch":1094,"▁0x":1095,"$$.write":1096,"$$Context":1097,"▁Illegal":1098,"$$Profi":1099,"$$(byte":1100,"$$em":1101,"$$arget":1102,"$$ress":1103,"▁java.nio.":1104,"$$hod":1105,"$$Inter":1106,"$$rst":1107,"$$form":1108,"$$iction":1109,"$$unction":1110,"▁pos":1111,"$$cer":1112,"$$Image":1113,"▁StringBuilder();\n":1114,"$$());\n}":1115,"▁try":1116,"$$Attributes":1117,"$$().":1118,"$$Balan":1119,"$$String(":1120,"$$rity":1121,"$$Record(":1122,"$$ead":1123,"$$-0":1124,"▁((":1125,"$$ection":1126,"$$Comm":1127,"$$Template":1128,"$$Or":1129,"$$Attribute":1130,"▁up":1131,"▁length":1132,"$$are":1133,"$$Tra":1134,"$$odify":1135,"▁.":1136,"$$book":1137,"$$Tim":1138,"$$(),":1139,"$$Put":1140,"$$ting":1141,"$$ST":1142,"▁g":1143,"$$(s":1144,"$$uth":1145,"$$ER":1146,"$$ArgumentException(\"":1147,"$$Formula":1148,"$$return":1149,"$$irst":1150,"$$ly":1151,"$$Error":1152,"$$FF":1153,"▁toString()":1154,"▁ToString()":1155,"$$1.Read":1156,"$$con":1157,"$$Secu":1158,"$$arch":1159,"$$atu":1160,"▁key":1161,"$$mpty":1162,"$$Balancer":1163,"$$Al":1164,"$$ession":1165,"▁-1":1166,"$$Source":1167,"$$Security":1168,"$$Proper":1169,"$$LE":1170,"$$ObjectId":1171,"$$object":1172,"$$OException":1173,"$$First":1174,"$$lu":1175,"$$hile":1176,"$$ument":1177,"$$lement":1178,"▁in.read":1179,"$$20":1180,"$$Name,":1181,"$$Position":1182,"▁out.write":1183,"$$By":1184,"$$s()":1185,"$$Link":1186,"$$Rev":1187,"$$uthor":1188,"$$lag":1189,"$$TokenStream":1190,"$$ternal":1191,"▁row":1192,"$$Point":1193,"$$Short();\n":1194,"$$erved":1195,"$$util.":1196,"$$Offset,":1197,"$$s;\n":1198,"$$Ma":1199,"$$1,":1200,"▁catch":1201,"$$Load":1202,"$$1.Write":1203,"▁V":1204,"▁offset,":1205,"$$annel":1206,"$$of":1207,"▁buffer.append(\"":1208,"▁out1.Write":1209,"$$Account":1210,"$$add(":1211,"$$(Describe":1212,"▁data":1213,"$$Vo":1214,"$$gment":1215,"$$toc":1216,"$$Dis":1217,"▁value)":1218,"$$tocol":1219,"$$Time":1220,"$$abel":1221,"$$ON":1222,"▁in1.Read":1223,"$$scher":1224,"▁id":1225,"$$raw":1226,"$$lection":1227,"$$Commit":1228,"$$((":1229,"$$RowIndex,":1230,"▁Put":1231,"$$=\"":1232,"$$work":1233,"▁executeDescribe":1234,"▁Invoke<Describe":1235,"$$vel":1236,"$$Action":1237,"$$start":1238,"▁input":1239,"$$Le":1240,"▁bytes":1241,"$$Client":1242,"$$Connect":1243,"▁delete":1244,"▁break":1245,"$$ign":1246,"$$Dire":1247,"$$]\\n\");\n":1248,"$$erge":1249,"$$der":1250,"$$long":1251,"$$mple":1252,"▁while":1253,"$$erialize":1254,"$$ud":1255,"$$Transit":1256,"$$32":1257,"$$Factory":1258,"$$eigh":1259,"▁jj_":1260,"$$Offset++]":1261,"$$apac":1262,"$$Reader":1263,"$$new":1264,"$$lan":1265,"$$(f":1266,"▁col":1267,"$$izer":1268,"▁Modify":1269,"$$teg":1270,"$$Protocol":1271,"▁>>":1272,"$$ential":1273,"$$Command":1274,"$$token":1275,"$$les":1276,"$$Th":1277,"$$add":1278,"$$lace":1279,"$$(in":1280,"▁break;\n":1281,"$$Match":1282,"$$cr":1283,"▁par":1284,"$$apacity":1285,"$$Empty":1286,"$$AT":1287,"$$exp":1288,"$$redential":1289,"$$LoadBalancer":1290,"$$gist":1291,"$$ence":1292,"$$ization":1293,"$$Name)":1294,"$$.Ar":1295,"$$s[i]":1296,"$$associate":1297,"$$Profile":1298,"$$SecurityGroup":1299,"$$Batch":1300,"$$Resource":1301,"$$short":1302,"$$Route":1303,"▁List<":1304,"$$limit":1305,"▁(c":1306,"$$s(Describe":1307,"▁count":1308,"$$(new":1309,"$$zer":1310,"$$2_":1311,"▁instance":1312,"$$s(List":1313,"$$Document":1314,"$$own":1315,"$$eren":1316,"$$Iterator":1317,"▁put":1318,"$$ili":1319,"$$Channel":1320,"$$Util":1321,"$$Resol":1322,"$$len":1323,"$$key":1324,"▁form":1325,"▁srcColumn":1326,"$$(Update":1327,"$$With":1328,"$$ParameterGroup":1329,"▁St":1330,"$$Val":1331,"$$sing":1332,"$$E_":1333,"$$Property":1334,"$$out":1335,"$$lone":1336,"$$AR":1337,"$$block":1338,"$$erti":1339,"$$Voice":1340,"$$TransitGateway":1341,"▁executeGet":1342,"▁Invoke<Get":1343,"$$ility":1344,"▁\"20":1345,"▁token":1346,"$$Pre":1347,"$$ath.":1348,"$$Target":1349,"$$oto":1350,"$$cord":1351,"$$values":1352,"▁min":1353,"$$Session":1354,"$$\";\n}":1355,"$$Exception(":1356,"$$tener":1357,"▁le":1358,"$$aly":1359,"$$Per":1360,"$$Exp":1361,"$$Stack":1362,"▁term":1363,"$$Dep":1364,"$$par":1365,"▁sub":1366,"▁4":1367,"$$Bit":1368,"▁read":1369,"$$Index)":1370,"▁\"201":1371,"$$(c":1372,"$$(_":1373,"$$chor":1374,"▁e)":1375,"$$.set":1376,"▁throws":1377,"$$Collection":1378,"$$InputStream":1379,"$$(I":1380,"$$');\n":1381,"$$ulti":1382,"$$Table":1383,"$$(this":1384,"$$Double":1385,"$$Fle":1386,"$$Fleet":1387,"$$Access":1388,"$$mail":1389,"▁java.util.":1390,"▁next":1391,"$$loud":1392,"▁pre":1393,"$$Modify":1394,"$$Date":1395,"$$riter":1396,"▁(this":1397,"$$Index);\n":1398,"$$Values":1399,"$$Clas":1400,"$$next":1401,"▁current":1402,"$$pace":1403,"▁HSSF":1404,"$$(byte[]":1405,"$$Usage":1406,"$$Typ":1407,"$$Email":1408,"▁executeDelete":1409,"▁Invoke<Delete":1410,"▁byte[]":1411,"$$gister":1412,"$$Run":1413,"$$0,":1414,"▁Add":1415,"▁/":1416,"$$VAL":1417,"$$FA":1418,"$$tach":1419,"$$erence":1420,"$$Author":1421,"▁sheet":1422,"▁Char":1423,"$$Ip":1424,"$$lear":1425,"▁Sh":1426,"$$Application":1427,"$$Connection":1428,"▁object":1429,"▁lo":1430,"$$dd(":1431,"$$eue":1432,"$$LittleEndian":1433,"$$valid":1434,"$$entry":1435,"$$ctor":1436,"▁System.Ar":1437,"▁T":1438,"$$UR":1439,"$$Is":1440,"$$Aut":1441,"$$\";\n":1442,"$$Address":1443,"▁IllegalArgumentException(\"":1444,"$$ertific":1445,"▁<<":1446,"$$flow":1447,"$$Ix":1448,"▁other.":1449,"$$ties":1450,"▁(m":1451,"$$Request()":1452,"$$.ToString();\n}":1453,"$$gg":1454,"$$tr":1455,"$$ost":1456,"$$etwork":1457,"$$SI":1458,"$$Sk":1459,"$$(p":1460,"$$Code":1461,"▁Cell":1462,"$$Model":1463,"$$DE":1464,"▁pro":1465,"$$Attach":1466,"$$posit":1467,"$$Network":1468,"$$Pa":1469,"$$s.length":1470,"▁last":1471,"▁executeCreate":1472,"▁Invoke<Create":1473,"$$Contain":1474,"$$Exception();\n":1475,"$$ates":1476,"▁as":1477,"$$Ptg":1478,"$$s.Length":1479,"▁srcRowIndex,":1480,"▁num":1481,"$$Noti":1482,"$$ault":1483,"$$nown":1484,"$$Last":1485,"▁state":1486,"$$Enc":1487,"▁System.":1488,"$$req":1489,"$$Class":1490,"$$ution":1491,"$$yment":1492,"▁obj":1493,"$$ingle":1494,"$$loyment":1495,"▁<=":1496,"$$Deployment":1497,"$$s;\n}":1498,"$$word":1499,"▁remove":1500,"$$ump":1501,"$$pository":1502,"$$Certific":1503,"$$offset":1504,"▁field_1_":1505,"$$Evaluation":1506,"$$Mem":1507,"$$ized":1508,"$$Vpn":1509,"$$eight":1510,"$$itor":1511,"$$ictionary":1512,"▁qu":1513,"▁Object":1514,"$$time":1515,"▁u":1516,"$$Mode":1517,"$$Reserved":1518,"$$Parse":1519,"$$.toString();\n}":1520,"$$Operation":1521,"$$ition":1522,"$$1);\n":1523,"$$aling":1524,"▁hash":1525,"$$Resolver":1526,"$$clu":1527,"$$.E":1528,"▁not":1529,"$$Used":1530,"$$Book":1531,"$$bu":1532,"$$Sched":1533,"$$Notification":1534,"$$enc":1535,"$$SE":1536,"$$sheet":1537,"▁executeList":1538,"▁Invoke<List":1539,"▁1;\n":1540,"$$ess":1541,"$$ark":1542,"▁float":1543,"$$Parser":1544,"$$Perm":1545,"$$orted":1546,"▁write":1547,"$$place":1548,"▁val":1549,"▁IOException":1550,"▁Rev":1551,"▁update":1552,"$$us":1553,"$$stant":1554,"▁Dis":1555,"$$>();\n":1556,"$$Function":1557,"$$Uni":1558,"▁an":1559,"$$pre":1560,"$$known":1561,"$$ability":1562,"$$result":1563,"▁position":1564,"$$(args,":1565,"▁instanceof":1566,"$$Pattern":1567,"$$(char":1568,"▁super(":1569,"▁3":1570,"$$ission":1571,"▁output":1572,"$$QueryNode":1573,"$$Permission":1574,"$$ld":1575,"$$ination":1576,"$$And":1577,"▁Start":1578,"$$sub":1579,"$$ies":1580,"$$Buffer.":1581,"$$LittleEndianOutput":1582,"$$Next":1583,"$$tive":1584,"$$ification":1585,"$$PO":1586,"$$ee":1587,"▁(n":1588,"▁comp":1589,"$$(name":1590,"$$face":1591,"$$UT":1592,"$$min":1593,"$$All":1594,"$$Only":1595,"$$-07":1596,"$$Connector":1597,"$$VoiceConnector":1598,"▁ref":1599,"$$ance":1600,"$$Exception();\n}":1601,"▁short":1602,"$$alyzer":1603,"$$gion":1604,"$$));\n}":1605,"$$00":1606,"$$ponent":1607,"▁m_":1608,"$$++;\n":1609,"$$acet":1610,"$$DBCluster":1611,"$$Id(":1612,"$$LO":1613,"$$Loc":1614,"$$ill":1615,"▁doc":1616,"▁LittleEndian":1617,"$$Lis":1618,"$$ift":1619,"$$acter":1620,"$$format":1621,"▁ap":1622,"$$Pred":1623,"$$ffic":1624,"$$D_":1625,"$$(t":1626,"$$valu":1627,"$$net":1628,"$$pend":1629,"$$Enable":1630,"$$lation":1631,"$$Writer":1632,"$$upp":1633,"▁1)":1634,"$$Traffic":1635,"$$cei":1636,"▁check":1637,"$$UL":1638,"$$m_":1639,"$$(index":1640,"$$Statu":1641,"$$ription":1642,"$$ecision":1643,"▁sb.append(\"":1644,"$$ume":1645,"$$Util.":1646,"▁(_":1647,"$$Constant":1648,"$$RecordInputStream":1649,"$$onitor":1650,"▁(t":1651,"▁Ref":1652,"$$Name);\n":1653,"$$Int(":1654,"▁first":1655,"▁-1;\n":1656,"▁default":1657,"$$Scaling":1658,"▁cell":1659,"$$oth":1660,"$$Dump":1661,"$$Syn":1662,"$$HexDump":1663,"$$aw":1664,"$$ture":1665,"$$Unknown":1666,"▁sb.Append(\"":1667,"$$Method":1668,"▁values[":1669,"$$-1":1670,"$$Member":1671,"$$Unicode":1672,"$$3_":1673,"$$_B":1674,"$$ethod":1675,"$$Map.":1676,"▁);\n":1677,"$$Head":1678,"$$alk":1679,"▁dst":1680,"▁start,":1681,"▁(byte":1682,"$$Interface":1683,"$$Auto":1684,"$$tic":1685,"$$Evaluate":1686,"$$Level":1687,"$$Utils.":1688,"$$orig":1689,"▁super":1690,"$$col":1691,"$$vi":1692,"$$ules":1693,"▁syn":1694,"$$last":1695,"▁parameter":1696,"$$s:":1697,"$$.Copy":1698,"$$0]":1699,"$$first":1700,"$$Detection":1701,"$$nt":1702,"$$byte":1703,"$$copy":1704,"$$Schedule":1705,"$$ss":1706,"▁path":1707,"▁out.writeShort(":1708,"$$Certificate":1709,"$$Multi":1710,"$$Game":1711,"$$Repository":1712,"▁o)":1713,"$$Default":1714,"$$Subsc":1715,"$$Skill":1716,"▁q":1717,"$$lter":1718,"$$Child":1719,"▁Method":1720,"$$ustom":1721,"▁0xFF":1722,"$$Item":1723,"$$.Add(":1724,"$$ociation":1725,"▁File":1726,"$$IT":1727,"$$(TokenStream":1728,"$$Hash":1729,"$$ries":1730,"▁iter":1731,"▁type":1732,"$$Record.":1733,"$$Subnet":1734,"$$Entry<":1735,"$$Num":1736,"$$rint":1737,"$$Len":1738,"$$Long":1739,"$$Label":1740,"$$ated":1741,"▁fore":1742,"$$Max":1743,"▁out1.WriteShort(":1744,"$$Part":1745,"$$sFor":1746,"$$Association":1747,"$$Constants.":1748,"$$Li":1749,"▁null;\n}":1750,"$$Check":1751,"▁8":1752,"$$(i":1753,"$$Line":1754,"$$mport":1755,"▁index)":1756,"▁args)":1757,"▁x":1758,"$$).":1759,"$$(long":1760,"$$Repo":1761,"$$Id,":1762,"$$Types":1763,"$$rl":1764,"$$Url":1765,"▁blocks[":1766,"▁text":1767,"$$s);\n}":1768,"$$ref":1769,"$$read":1770,"$$String>":1771,"▁Par":1772,"$$Dat":1773,"$$elta":1774,"$$comp":1775,"▁\").Append(":1776,"$$Datab":1777,"$$UM":1778,"$$Freq":1779,"$$wit":1780,"▁limit":1781,"$$witch":1782,"▁Term":1783,"▁(f":1784,"$$idth":1785,"$$Listener":1786,"$$ateg":1787,"$$fier":1788,"$$Count)":1789,"$$Sequ":1790,"$$Record(RecordInputStream":1791,"$$Base":1792,"▁must":1793,"▁Remove":1794,"$$UN":1795,"$$Integ":1796,"$$Pool":1797,"▁Math.":1798,"▁false;\n}":1799,"$$valuesOffset++]":1800,"▁values[valuesOffset++]":1801,"$$Cloud":1802,"$$throw":1803,"▁executeUpdate":1804,"▁Invoke<Update":1805,"$$eries":1806,"$$Api":1807,"$$(double":1808,"$$[/":1809,"$$s.get":1810,"$$Prov":1811,"$$Setting":1812,"$$(input":1813,"$$blocks":1814,"▁Ex":1815,"$$ail":1816,"$$iff":1817,"$$--":1818,"$$JGit":1819,"▁Error":1820,"$$fin":1821,"$$AP":1822,"$$lice":1823,"$$sign":1824,"$$Enum":1825,"▁this._":1826,"▁lock":1827,"$$gin":1828,"$$Word":1829,"▁from":1830,"$$ormal":1831,"▁Bytes":1832,"$$Photo":1833,"$$Factory(":1834,"$$Database":1835,"$$Credential":1836,"$$ft":1837,"$$];\n}":1838,"$$Escher":1839,"$$Name(":1840,"$$Change":1841,"$$field_1_":1842,"$$ternSheet":1843,"$$Zone":1844,"$$Remove":1845,"$$ryption":1846,"$$ative":1847,"$$ByteBuffer":1848,"$$Works":1849,"$$order":1850,"▁input)":1851,"$$Directory":1852,"$$),":1853,"$$K,":1854,"$$tect":1855,"$$.Append(\"\\n\");\n":1856,"$$Merge":1857,"$$Reset":1858,"$$ric":1859,"▁data,":1860,"$$ron":1861,"$$rap":1862,"$$equals(":1863,"$$options":1864,"▁Index":1865,"$$args.":1866,"$$acking":1867,"▁Batch":1868,"$$SIZ":1869,"▁assert":1870,"$$ph":1871,"$$ded":1872,"▁args);\n":1873,"▁6":1874,"$$EC":1875,"$$<string":1876,"$$Facet":1877,"$$Request(string":1878,"$$Pos":1879,"▁parameters:":1880,"$$uc":1881,"$$Relation":1882,"$$Request(String":1883,"$$ayload":1884,"$$4_":1885,"▁ret":1886,"▁remaining":1887,"▁\");\n":1888,"$$S_":1889,"$$ecode":1890,"▁switch":1891,"▁index,":1892,"▁copy":1893,"$$.append('":1894,"$$Search":1895,"▁Un":1896,"▁Read":1897,"▁Field":1898,"$$ram":1899,"$$sk":1900,"$$imple":1901,"$$Vault":1902,"$$Hand":1903,"$$2,":1904,"$$ced":1905,"▁(d":1906,"$$chron":1907,"$$Deli":1908,"$$ata,":1909,"$$Segment":1910,"▁V>":1911,"▁BytesRef":1912,"$$SIZE":1913,"$$chronized":1914,"$$rt":1915,"$$().get":1916,"$$ToHex":1917,"▁shift":1918,"▁\").append(":1919,"$$lone()":1920,"$$Encryption":1921,"▁blocks[blocks":1922,"▁Token":1923,"▁entry":1924,"$$Recei":1925,"$$.As":1926,"$$Metric":1927,"▁synchronized":1928,"$$Case":1929,"$$ges":1930,"▁++":1931,"▁Byte":1932,"$$DBInstance":1933,"$$bug":1934,"$$Relational":1935,"$$Custom":1936,"$$Not":1937,"$$AN":1938,"$$YTE":1939,"$$utable":1940,"▁int[]":1941,"$$Size)":1942,"$$Of(":1943,"▁Escher":1944,"▁format":1945,"▁add":1946,"$$Stem":1947,"$$EN":1948,"$$HSSF":1949,"▁record":1950,"▁NGit":1951,"▁iteration":1952,"▁y":1953,"$$cle":1954,"$$num":1955,"▁exp":1956,"$$.C":1957,"$$(List":1958,"$$Flag":1959,"▁true;\n}":1960,"$$Anchor":1961,"▁G":1962,"▁ac":1963,"$$core":1964,"$$open":1965,"$$Open":1966,"$$.next":1967,"$$HT":1968,"▁(I":1969,"$$sid":1970,"$$Queue":1971,"$$Spec":1972,"▁foreach":1973,"$$ings":1974,"$$ected":1975,"$$vail":1976,"$$java.":1977,"$$Execution":1978,"$$losing":1979,"$$Arg":1980,"▁sb.Append(":1981,"$$Compare":1982,"$$Capacity":1983,"$$._":1984,"$$Serv":1985,"$$Flow":1986,"$$FilterFactory(":1987,"$$size()":1988,"$$Sequence":1989,"▁at":1990,"$$Pack":1991,"$$Supp":1992,"$$BytesUsed":1993,"$$Valid":1994,"$$HexDump.":1995,"$$yle":1996,"$$lob":1997,"$$ribution":1998,"$$istribution":1999,"$$Bound":2000,"$$enclosing":2001,"$$Local":2002,"$$.Assert":2003,"$$bug.Assert":2004,"$$RelationalDatabase":2005,"▁un":2006,"$$PS":2007,"$$gh":2008,"▁old":2009,"▁bu":2010,"$$Formatting":2011,"$$valuate":2012,"$$cre":2013,"$$eer":2014,"$$.S":2015,"$$ject":2016,"$$Str":2017,"$$Phone":2018,"▁srcColumnIndex,":2019,"$$ancel":2020,"$$Limit":2021,"$$g.":2022,"$$Stop":2023,"$$Value(":2024,"▁Debug.Assert":2025,"▁rule":2026,"▁base(\"":2027,"$$Classi":2028,"▁LittleEndian.":2029,"▁super(\"":2030,"$$Public":2031,"$$ho":2032,"$$eed":2033,"$$TY":2034,"$$Reference":2035,"$$Int32":2036,"$$obj":2037,"$$Det":2038,"$$Monitor":2039,"$$Element":2040,"▁(s":2041,"▁0;\n}":2042,"▁Stop":2043,"$$original":2044,"$$ema":2045,"$$entries":2046,"▁stop":2047,"$$Count);\n":2048,"$$hash":2049,"$$ish":2050,"$$2)":2051,"$$loc":2052,"$$.append(\"\\n\");\n":2053,"$$Note":2054,"$$.Equals(":2055,"$$HTT":2056,"▁Protocol":2057,"$$ycle":2058,"$$its":2059,"$$Room":2060,"▁Ass":2061,"$$(data,":2062,"$$Provid":2063,"$$gres":2064,"$$Tri":2065,"$$Font":2066,"$$Type.HTT":2067,"$$Type.HTTPS":2068,"$$Send":2069,"$$erver":2070,"$$Remaining":2071,"$$Name;\n":2072,"$$ConfigurationSet":2073,"$$VpcEndpoint":2074,"▁Record":2075,"$$vice":2076,"$$jj_":2077,"$$\");\n}":2078,"$$Record)":2079,"$$JGitText":2080,"$$lobal":2081,"$$Pri":2082,"$$has":2083,"$$':\n":2084,"▁c)":2085,"▁com":2086,"▁field_2_":2087,"$$Schema":2088,"$$Ord":2089,"$$ound":2090,"$$5_":2091,"$$er)":2092,"$$inue":2093,"$$Eval.":2094,"▁len)":2095,"$$Compar":2096,"▁0xFF;\n":2097,"$$s;":2098,"$$os":2099,"$$Virtual":2100,"$$isEmpty":2101,"$$.Add":2102,"▁Run":2103,"$$FAUL":2104,"$$filter":2105,"▁in)":2106,"$$Map<":2107,"$$Boolean":2108,"$$Score":2109,"▁obj)":2110,"$$Rest":2111,"$$')":2112,"$$check":2113,"$$String,":2114,"▁str":2115,"$$Logg":2116,"$$PhoneNumber":2117,"$$urn":2118,"$$Override":2119,"$$.Set":2120,"$$Inv":2121,"$$tax":2122,"$$assword":2123,"$$Operand":2124,"▁Parse":2125,"$$Avail":2126,"$$Export":2127,"$$Direct":2128,"$$<string,":2129,"$$line":2130,"$$.add(":2131,"$$Lex":2132,"$$AM":2133,"$$AX":2134,"$$He":2135,"$$round":2136,"$$Qual":2137,"▁equals(":2138,"$$\\n');\n":2139,"$$Component":2140,"$$uffix":2141,"▁Disassociate":2142,"$$Peer":2143,"$$Lif":2144,"$$cept":2145,"$$ecycle":2146,"$$Conta":2147,"▁evaluate":2148,"$$(bo":2149,"$$\").append(":2150,"$$Deliver":2151,"$$Lifecycle":2152,"$$Contact":2153,"$$Sec":2154,"$$BJ":2155,"$$/[":2156,"▁1);\n":2157,"$$arraycopy":2158,"▁shape":2159,"▁Ram":2160,"▁System.arraycopy":2161,"$$Rules":2162,"$$CO":2163,"$$)((":2164,"$$(s,":2165,"$$error":2166,"$$stra":2167,"▁(re":2168,"$$Process":2169,"▁System.ArgumentException(\"":2170,"$$cedence":2171,"▁Evaluate":2172,"$$Raw":2173,"$$ote":2174,"$$Offer":2175,"$$OBJ":2176,"$$ns":2177,"$$type":2178,"$$(st":2179,"$$Ad":2180,"$$Workbook":2181,"$$stim":2182,"$$null":2183,"▁serialize":2184,"$$Color":2185,"$$URI":2186,"▁J":2187,"$$pro":2188,"$$Global":2189,"$$old":2190,"$$Acti":2191,"▁TokenStream":2192,"$$s(Get":2193,"▁result;\n}":2194,"$$.ToString()":2195,"▁blocks[blocksOffset++]":2196,"▁Associate":2197,"$$FAULT_":2198,"$$current":2199,"$$ifi":2200,"$$Report":2201,"$$eld(":2202,"$$Shape":2203,"$$Field(":2204,"▁Is":2205,"▁out)":2206,"$$OutOf":2207,"$$tep":2208,"$$arm":2209,"▁Se":2210,"▁match":2211,"$$ources":2212,"$$Addres":2213,"$$Associate":2214,"$$VALID":2215,"$$Container":2216,"$$ym":2217,"$$Device":2218,"$$Prox":2219,"▁element":2220,"$$box":2221,"$$TreeFilter":2222,"▁@Override":2223,"▁ArrayList<":2224,"$$cr\",":2225,"$$inary":2226,"$$list":2227,"$$otal":2228,"$$SheetIndex":2229,"$$Spot":2230,"$$Revision":2231,"$$ClientVpn":2232,"$$Attachment":2233,"$$Subscription":2234,"$$API":2235,"$$Service":2236,"$$i)":2237,"$$.Is":2238,"$$Min":2239,"$$FI":2240,"$$log":2241,"$$rase":2242,"▁Serialize":2243,"$$ression":2244,"▁Bo":2245,"▁len);\n":2246,"▁name,":2247,"$$VALU":2248,"$$ackingArray":2249,"$$OF":2250,"$$.d":2251,"$$bit":2252,"$$E>":2253,"$$Be":2254,"▁0);\n":2255,"$$BytesRef":2256,"$$INVALID":2257,"$$Authorization":2258,"$$ictionary<string,":2259,"$$Receipt":2260,"$$use":2261,"$$Call":2262,"$$.D":2263,"$$Sign":2264,"$$Estim":2265,"$$Entry<K,":2266,"$$Offering":2267,"$$UShort();\n":2268,"$$Agg":2269,"$$ward":2270,"$$com":2271,"▁byteBuffer.":2272,"▁column":2273,"$$clude":2274,"▁Con":2275,"$$CK":2276,"$$System":2277,"$$zz":2278,"$$estination":2279,"$$Replication":2280,"▁cmp":2281,"$$ctx":2282,"▁lis":2283,"▁Arrays.":2284,"$$Proxy":2285,"▁en":2286,"$$sTo":2287,"$$Distribution":2288,"$$(id":2289,"$$Back":2290,"$$Find":2291,"$$ArgumentException":2292,"$$Count;\n":2293,"$$Filter(input":2294,"$$Detector":2295,"$$(src":2296,"▁formula":2297,"$$Header":2298,"$$osted":2299,"▁all":2300,"$$ush":2301,"$$Gen":2302,"$$stings":2303,"$$lose":2304,"$$App":2305,"▁lex":2306,"$$Syntax":2307,"$$act":2308,"$$0)":2309,"▁return;\n":2310,"▁sp":2311,"$$Name;\n}":2312,"▁Equals(":2313,"$$Byte(":2314,"$$Workflow":2315,"$$POST":2316,"$$other":2317,"▁ptr":2318,"$$Type.POST":2319,"$$Request():":2320,"$$lative":2321,"$$(m":2322,"$$(value":2323,"$$(Modify":2324,"$$1\",":2325,"$$Fra":2326,"$$ingJob":2327,"▁(i":2328,"$$Idx":2329,"$$tent":2330,"▁child":2331,"▁>>>":2332,"$$RouteTable":2333,"$$DetectionJob":2334,"$$isEmpty())":2335,"$$Peering":2336,"$$TH":2337,"$$]);\n":2338,"$$Veri":2339,"$$Parent":2340,"$$cal":2341,"$$Mo":2342,"$$irror":2343,"$$Name()":2344,"$$Disassociate":2345,"$$Pair":2346,"$$eek":2347,"$$OnlyBuffer":2348,"▁Query":2349,"▁ArgumentException(\"":2350,"$$sWith":2351,"$$i];\n":2352,"$$(e":2353,"▁off":2354,"$$older":2355,"▁IList<":2356,"▁byte[":2357,"$$Metho":2358,"▁2)":2359,"$$Workspace":2360,"$$Method(":2361,"▁Reset":2362,"$$sum":2363,"▁rec":2364,"▁Number":2365,"$$.Length);\n":2366,"$$Docs":2367,"$$irectory":2368,"$$EvaluationException":2369,"$$ght":2370,"$$gress":2371,"$$Vis":2372,"$$Hosted":2373,"▁Double":2374,"▁in1)":2375,"▁buffer.ToString();\n}":2376,"$$perand":2377,"$$Track":2378,"$$-11\",":2379,"$$ReplicationGroup":2380,"$$Server":2381,"$$(key":2382,"$$bytes":2383,"$$Mirror":2384,"$$input":2385,"▁\",":2386,"▁\"open":2387,"$$\").Append(":2388,"▁in1.ReadShort();\n":2389,"$$ATN":2390,"$$AutoScaling":2391,"$$API\")":2392,"▁\"openAPI\")":2393,"$$CT":2394,"$$):":2395,"$$(repo":2396,"$$External":2397,"▁out1)":2398,"$$.NUM":2399,"$$ping":2400,"$$.equals(":2401,"▁source":2402,"▁_position":2403,"$$Id)":2404,"$$Eval)":2405,"$$.Not":2406,"▁this._enclosing":2407,"$$Handl":2408,"$$lish":2409,"$$short)":2410,"$$UsageEstim":2411,"$$Availability":2412,"$$UsageEstimator":2413,"▁raw":2414,"▁original":2415,"$$Cam":2416,"$$gate":2417,"$$Section":2418,"$$HIT":2419,"$$er,":2420,"$$arpen":2421,"$$ison":2422,"▁field_3_":2423,"$$Policies":2424,"$$Transition":2425,"$$paign":2426,"$$Assess":2427,"$$(char[]":2428,"$$TrafficMirror":2429,"$$GameSession":2430,"$$Provider":2431,"$$VirtualInterface":2432,"$$Qualification":2433,"$$Campaign":2434,"$$arpen.":2435,"$$Assessment":2436,"$$vio":2437,"$$(JGitText":2438,"$$back":2439,"$$Ali":2440,"$$Vol":2441,"$$alt":2442,"$$ript":2443,"$$Size,":2444,"$$ending":2445,"$$.length()":2446,"▁Check":2447,"$$(ILittleEndianOutput":2448,"$$itional":2449,"$$vate":2450,"$$gr":2451,"$$(LittleEndianOutput":2452,"$$_SIZE":2453,"$$query":2454,"▁print":2455,"$$lex":2456,"▁(p":2457,"$$sive":2458,"$$s(new":2459,"$$Upto":2460,"$$sRequest());\n}":2461,"$$board":2462,"▁args[":2463,"$$.Append('":2464,"▁other)":2465,"▁contain":2466,"▁ord":2467,"▁Write":2468,"▁ObjectId":2469,"$$ure":2470,"$$0x":2471,"$$6-0":2472,"$$1;\n":2473,"▁Integ":2474,"▁_limit":2475,"$$gnizer":2476,"$$RangeAddress":2477,"▁in.readShort();\n":2478,"$$mplem":2479,"$$ReservedInstances":2480,"$$istance":2481,"$$(array":2482,"$$(Put":2483,"$$Float":2484,"$$temp":2485,"$$Byte();\n":2486,"$$Alarm":2487,"▁srcColumnIndex);\n":2488,"$$Prefix":2489,"$$PerValue":2490,"▁query":2491,"$$AX_":2492,"$$CE":2493,"$$mod":2494,"$$Implem":2495,"$$table":2496,"▁do":2497,"▁System.Not":2498,"▁end)":2499,"$$Prediction":2500,"$$Implemen":2501,"$$Import":2502,"$$64":2503,"$$register":2504,"$$issing":2505,"$$adata":2506,"▁Send":2507,"$$Enti":2508,"$$Streaming":2509,"$$TER":2510,"$$SubnetGroup":2511,"▁iterator":2512,"$$mak":2513,"$$mask":2514,"$$Reco":2515,"$$eric":2516,"$$Implemented":2517,"▁add(":2518,"$$buf":2519,"$$Area":2520,"$$erator":2521,"▁number":2522,"▁int[":2523,"▁Inter":2524,"$$unc":2525,"▁(int)":2526,"$$(out":2527,"$$Span":2528,"▁++i)":2529,"$$af":2530,"$$sor":2531,"$$Destination":2532,"$$ulture":2533,"$$To(":2534,"▁sb.append(":2535,"▁RamUsageEstimator":2536,"▁[":2537,"$$Ori":2538,"$$Over":2539,"$$Dash":2540,"$$<E>":2541,"$$6_":2542,"$$Index;\n":2543,"▁this.m_":2544,"$$Short();\n}":2545,"$$(buffer":2546,"$$Journ":2547,"$$icate":2548,"$$(object":2549,"▁@in":2550,"▁\"2017":2551,"$$placement":2552,"▁(IOException":2553,"$$Monitoring":2554,"$$Notebook":2555,"$$Trial":2556,"$$sRef":2557,"$$Null":2558,"$$gen":2559,"$$group":2560,"$$md":2561,"$$regate":2562,"▁(\"":2563,"$$vert":2564,"$$Upload":2565,"$$ursor":2566,"$$tag":2567,"▁string>":2568,"$$Int();\n":2569,"$$ID_":2570,"▁anchor":2571,"$$compare":2572,"$$straint":2573,"$$ference":2574,"$$0);\n":2575,"$$ublish":2576,"$$Invalid":2577,"$$Style":2578,"▁buffer.append(":2579,"▁reset":2580,"▁field_4_":2581,"$$Metadata":2582,"▁\"2016-0":2583,"$$UTF":2584,"▁Runtime":2585,"▁Equals(object":2586,"$$sg":2587,"$$son":2588,"$$GE":2589,"▁Int":2590,"▁flag":2591,"▁Sp":2592,"▁link":2593,"▁buffer.toString();\n}":2594,"$$string(":2595,"▁value;\n":2596,"▁key)":2597,"$$Activ":2598,"$$Method(Method":2599,"$$Uri":2600,"$$Single":2601,"$$(Re":2602,"$$(result":2603,"$$state":2604,"▁setMethod(Method":2605,"$$Fill":2606,"$$Row,":2607,"▁blocks":2608,"$$lush":2609,"▁W":2610,"▁%":2611,"$$pic":2612,"▁of":2613,"▁(EvaluationException":2614,"$$Name);\n}":2615,"$$ody":2616,"$$odes":2617,"▁prefix":2618,"$$LOCK":2619,"$$OBJEC":2620,"▁ar":2621,"$$dQuery":2622,"$$iti":2623,"$$uld":2624,"▁inter":2625,"▁\"c":2626,"$$parent":2627,"$$Face":2628,"$$Detect":2629,"$$E_INVALID":2630,"▁compare":2631,"$$ToHex(":2632,"$$.f":2633,"$$ML":2634,"▁\"'":2635,"$$Defin":2636,"$$ector":2637,"$$reserved":2638,"▁1,":2639,"▁pos,":2640,"$$Terms":2641,"$$.con":2642,"▁RevFilter":2643,"$$UriPattern":2644,"▁Operand":2645,"$$ground":2646,"$$link":2647,"$$Impl":2648,"$$S3":2649,"$$La":2650,"$$16":2651,"▁pa":2652,"▁if(":2653,"▁0);\n}":2654,"$$Encode":2655,"▁-1)":2656,"▁word":2657,"$$Query(":2658,"▁otherBuffer":2659,"$$ErrorEval":2660,"▁(this)":2661,"$$flowException();\n":2662,"$$crement":2663,"$$Dashboard":2664,"▁OperandResolver":2665,"$$head":2666,"$$ax":2667,"$$ditional":2668,"$$i.":2669,"$$.char":2670,"$$erAction":2671,"$$str":2672,"▁buffer.Append(":2673,"$$Files":2674,"$$Evaluator":2675,"$$(this,":2676,"$$itsPerValue":2677,"$$Ordinal":2678,"$$Map<String,":2679,"$$New":2680,"$$mi":2681,"$$.is":2682,"$$TA":2683,"$$(w":2684,"$$AS":2685,"$$alth":2686,"$$Region":2687,"▁fin":2688,"$$s.add(":2689,"$$resh":2690,"$$Dataset":2691,"$$ached":2692,"$$Apns":2693,"$$Identifier":2694,"$$ConnectGateway":2695,"$$TrafficPolicy":2696,"$$BytesUsed()":2697,"$$DirectConnectGateway":2698,"▁equals(Object":2699,"$$ReceiptRule":2700,"▁off,":2701,"$$NotebookInstance":2702,"$$Activity":2703,"$$ION":2704,"$$bs":2705,"$$LL":2706,"$$Arn":2707,"▁b)":2708,"▁mark":2709,"$$valSet":2710,"▁result;\n":2711,"$$Namespace":2712,"▁group":2713,"$$Collection<":2714,"▁Sharpen.":2715,"$$Photo\",":2716,"$$Callable":2717,"▁\"2016-06":2718,"$$ditionalFormatting":2719,"$$used":2720,"$$s\",":2721,"$$sKey":2722,"$$ger":2723,"$$ene":2724,"$$enten":2725,"$$unch":2726,"$$oreCase":2727,"$$Character":2728,"$$ptr":2729,"$$ontinue":2730,"▁jj_exp":2731,"$$_BYTE":2732,"$$Scheduled":2733,"$$Detail":2734,"$$Eval.VALU":2735,"$$Aggregate":2736,"$$Launch":2737,"$$Eval.VALUE_INVALID":2738,"$$NG":2739,"$$match":2740,"$$ker":2741,"$$MP":2742,"$$Walk":2743,"$$VE":2744,"▁stream":2745,"$$ressed":2746,"▁map":2747,"▁message":2748,"▁16":2749,"$$acked":2750,"$$ages":2751,"$$Thread":2752,"$$(name,":2753,"▁default:\n":2754,"▁\"2017-07":2755,"$$sBy":2756,"$$CH":2757,"$$.value":2758,"$$kip":2759,"$$==":2760,"$$2);\n":2761,"▁(e":2762,"▁(index":2763,"▁date":2764,"$$Type()":2765,"$$ConfigurationRequest":2766,"$$Mapping":2767,"$$.toString()":2768,"▁config":2769,"$$lear();\n":2770,"$$--;\n":2771,"▁build":2772,"▁System.NotImplemented":2773,"▁System.NotImplementedException();\n}":2774,"$$ved":2775,"$$.Format":2776,"$$AD":2777,"$$ally":2778,"$$file":2779,"$$utf":2780,"$$args);\n":2781,"$$IDictionary<string,":2782,"$$lang.":2783,"$$Property(":2784,"▁IllegalArgumentException(\"Unknown":2785,"$$ontinue;\n":2786,"$$Pip":2787,"$$Ptr":2788,"$$Op":2789,"$$nect":2790,"$$mt":2791,"$$Sm":2792,"$$(r":2793,"$$okup":2794,"$$field_2_":2795,"▁Mutable":2796,"▁An":2797,"$$OutputStream":2798,"$$(args)":2799,"$$Disk":2800,"▁append(":2801,"$$entence":2802,"$$ad(":2803,"$$ib":2804,"$$ner":2805,"$$..":2806,"▁pattern":2807,"▁(start":2808,"▁it":2809,"$$Cont":2810,"$$Order":2811,"$$loudph":2812,"▁(true":2813,"$$CloudPhoto\",":2814,"$$Health":2815,"▁Serialize(ILittleEndianOutput":2816,"$$Volume":2817,"▁\"cloudph":2818,"$$Definition":2819,"▁\"2017-07-11\",":2820,"▁\"cloudphoto":2821,"$$du":2822,"$$.M":2823,"$$Simple":2824,"$$etach":2825,"$$Ingres":2826,"$$idr":2827,"▁db":2828,"$$legate":2829,"$$(oth":2830,"$$annot":2831,"$$param":2832,"$$Typed":2833,"$$Logging":2834,"▁serialize(LittleEndianOutput":2835,"▁parent":2836,"$$TN":2837,"▁Invalid":2838,"▁dis":2839,"▁ext":2840,"$$Progress":2841,"▁NB":2842,"$$val.":2843,"▁file":2844,"▁(!args.":2845,"▁base(args)":2846,"$$lank":2847,"$$lear()":2848,"▁super(args);\n":2849,"$$-07\",":2850,"▁Search":2851,"▁\"2016-06-07\",":2852,"$$Port":2853,"$$Publish":2854,"$$user":2855,"$$ared":2856,"$$ek":2857,"$$eb":2858,"$$ould":2859,"$$fer":2860,"$$(a":2861,"$$[0]":2862,"$$Host":2863,"$$archer":2864,"$$ang":2865,"▁(array":2866,"$$root":2867,"$$itation":2868,"▁Sub":2869,"▁label":2870,"$$Set(":2871,"$$avail":2872,"$$FieldLevel":2873,"$$ING":2874,"▁blocks,":2875,"$$TagsFor":2876,"▁name)":2877,"$$Class.":2878,"$$ParseTree":2879,"$$GameServer":2880,"$$Integration":2881,"$$Comparison":2882,"$$Invitation":2883,"$$/[Repo":2884,"$$TypedLink":2885,"▁(!args.isEmpty())":2886,"$$FieldLevelEncryption":2887,"$$map":2888,"$$tx":2889,"$$buffer":2890,"$$Fr":2891,"$$Intern":2892,"$$Constraint":2893,"$$cket":2894,"$$Callable();\n":2895,"$$Step":2896,"$$bol":2897,"$$Man":2898,"$$ones":2899,"▁part":2900,"▁v_":2901,"▁clone()":2902,"$$site":2903,"$$NameRecord":2904,"$$GroupRequest":2905,"▁IO":2906,"$$)).Append(\"\\n\");\n":2907,"$$SizeOf":2908,"▁ATN":2909,"$$Termination":2910,"▁field_5_":2911,"$$ClusterSnapshot":2912,"$$CharSequence":2913,"$$.Length;":2914,"▁fill":2915,"▁Hash":2916,"▁upto":2917,"$$cond":2918,"▁idx":2919,"$$ymbol":2920,"▁TreeFilter":2921,"$$Payload":2922,"$$font":2923,"$$If":2924,"$$(field":2925,"$$],":2926,"$$alet":2927,"$$stream":2928,"▁(args.":2929,"▁b,":2930,"$$ExternSheet":2931,"▁cr":2932,"▁function":2933,"$$Id);\n":2934,"▁super.":2935,"$$HexString(":2936,"▁char[]":2937,"$$parse":2938,"$$Encod":2939,"$$Record.sid":2940,"▁retval":2941,"$$Supported":2942,"$$ackingArray,":2943,"▁(true)":2944,"$$alette":2945,"$$sume":2946,"$$Current":2947,"$$oo":2948,"$$_index":2949,"$$escher":2950,"$$etGateway":2951,"$$ConditionalFormatting":2952,"▁_d":2953,"$$Size);\n":2954,"$$tribute":2955,"$$.Length)":2956,"▁values,":2957,"$$ntk":2958,"$$ategy":2959,"▁ErrorEval.VALUE_INVALID":2960,"▁commit":2961,"$$Verification":2962,"$$InternetGateway":2963,"$$ROR":2964,"$$Vector":2965,"$$ray.Copy":2966,"▁work":2967,"▁Register":2968,"▁\")\";\n}":2969,"$$.create":2970,"▁context":2971,"$$Runtime":2972,"▁System.Array.Copy":2973,"$$WorkflowExecution":2974,"$$ErrorEval();\n":2975,"▁Exp":2976,"$$lass":2977,"$$(Start":2978,"$$bcore":2979,"▁(r":2980,"▁StringComparison":2981,"▁Clone()":2982,"$$s.Get":2983,"$$Propos":2984,"$$Role":2985,"$$field_3_":2986,"$$RuleContext":2987,"$$.remove":2988,"▁has":2989,"$$iant":2990,"▁user":2991,"$$bcore.":2992,"$$Proposal":2993,"▁Formula":2994,"▁Enable":2995,"$$flag":2996,"$$mer":2997,"$$.Create":2998,"$$Math.":2999,"$$\\\"":3000,"▁ptg":3001,"$$external":3002,"$$ilt":3003,"$$Lock":3004,"$$boot":3005,"$$Collections.":3006,"▁analyzer":3007,"▁(args.Count":3008,"$$RO":3009,"$$Cidr":3010,"$$base":3011,"$$Zones":3012,"$$quire":3013,"$$Internal":3014,"▁vault":3015,"▁continue;\n":3016,"$$olution":3017,"$$version":3018,"$$Modification":3019,"▁(block":3020,"$$eighted":3021,"$$lacement":3022,"$$Addresses":3023,"$$Predicate":3024,"▁NGit.Ap":3025,"$$OBJECT_":3026,"▁error":3027,"$$Cached":3028,"$$.Ordinal":3029,"$$Decision":3030,"$$(@":3031,"$$Esc":3032,"$$_M":3033,"$$_options":3034,"$$Full":3035,"$$2;\n":3036,"▁slice":3037,"▁the":3038,"▁find":3039,"$$sitive":3040,"$$ables":3041,"▁this.d":3042,"▁libcore.":3043,"$$Cells":3044,"$$.remaining":3045,"$$FilterFactory(Map<String,":3046,"$$FilterFactory(IDictionary<string,":3047,"$$Classic":3048,"$$_BYTES_":3049,"$$Plan":3050,"$$ses":3051,"$$mark":3052,"$$.B":3053,"$$tal":3054,"$$Distance":3055,"$$Sort":3056,"$$]\");\n":3057,"$$Ed":3058,"$$_P":3059,"$$wer":3060,"▁capacity":3061,"▁insert":3062,"▁Long":3063,"$$VpcPeering":3064,"$$gnoreCase":3065,"▁valuesOffset,":3066,"$$Info.":3067,"$$IdentityPool":3068,"▁buffer.Append(\"[":3069,"$$Mail":3070,"$$UsagePlan":3071,"$$ResolverRule":3072,"▁iterations)":3073,"▁iterations;":3074,"$$LocalGateway":3075,"▁Debug.Assert(":3076,"$$Delivery":3077,"▁blocksOffset,":3078,"$$MPTY":3079,"▁StringComparison.Ordinal":3080,"▁on":3081,"$$cation":3082,"$$Option":3083,"$$.Count":3084,"$$ATE":3085,"▁\"Get":3086,"▁total":3087,"▁head":3088,"▁@object":3089,"▁buffer.Append(\"[/":3090,"$$ial":3091,"$$ired":3092,"$$)return":3093,"$$_1":3094,"$$()))":3095,"▁DE":3096,"▁\"\";\n":3097,"$$Protect":3098,"▁Ptg":3099,"$$DataSource":3100,"$$tension":3101,"$$KeyPair":3102,"▁srcOffset,":3103,"$$PolicyRequest":3104,"$$Assign":3105,"$$InstancesRequest":3106,"$$indow":3107,"$$ORD_":3108,"$$clusive":3109,"▁Disable":3110,"▁NumberEval":3111,"$$(array,":3112,"$$Pipel":3113,"▁K":3114,"$$NO":3115,"$$Nodes":3116,"$$fter":3117,"$$Width":3118,"$$Bund":3119,"$$err":3120,"$$antic":3121,"▁(a":3122,"$$fill":3123,"▁+\"":3124,"▁decision":3125,"▁Size":3126,"▁Iterator":3127,"▁setProtocol":3128,"▁rval":3129,"$$string>":3130,"▁sb.ToString();\n}":3131,"$$Boost":3132,"$$ptg":3133,"$$LENG":3134,"$$Class().get":3135,"$$other.":3136,"▁LittleEndian.Put":3137,"$$HostedZone":3138,"$$anticContext":3139,"$$LENGTH":3140,"▁5":3141,"$$Cancel":3142,"$$(get":3143,"$$Web":3144,"$$ines":3145,"▁(arg":3146,"$$int)":3147,"$$utor":3148,"▁delta":3149,"$$Index);\n}":3150,"$$Att":3151,"$$Type().":3152,"$$Size;\n":3153,"▁sb.toString();\n}":3154,"▁java.lang.":3155,"▁IllegalState":3156,"$$s.Length;":3157,"$$color":3158,"▁ProtocolType.HTTPS":3159,"▁listener":3160,"$$OnlyBufferException();\n}":3161,"▁finally":3162,"▁libcore.io.":3163,"▁temp":3164,"$$eg":3165,"$$Categ":3166,"$$Culture":3167,"$$number":3168,"$$.0":3169,"$$Dec":3170,"$$(Protocol":3171,"$$_token":3172,"$$record":3173,"$$inate":3174,"$$ale":3175,"$$shape":3176,"▁(in":3177,"▁(short)":3178,"▁snapshot":3179,"$$Index(":3180,"$$Index(index":3181,"▁_c":3182,"$$cognizer":3183,"▁-=":3184,"▁walk":3185,"$$Comment":3186,"$$FileSystem":3187,"$$Phrase":3188,"$$(float":3189,"$$Expression":3190,"▁queue":3191,"▁(byte)":3192,"▁setProtocol(Protocol":3193,"▁setProtocol(ProtocolType.HTTPS":3194,"$$Placement":3195,"$$Dir":3196,"$$1token":3197,"$$erInstance":3198,"$$ingGroup":3199,"▁cache":3200,"▁Detach":3201,"$$istory":3202,"▁line":3203,"$$Shingle":3204,"▁10":3205,"▁Ap":3206,"$$mote":3207,"$$connect":3208,"▁Sheet":3209,"$$uses":3210,"$$.append('\\n');\n":3211,"▁LittleEndian.put":3212,"$$Alias":3213,"$$path":3214,"$$.se":3215,"$$IM":3216,"$$(ValueEval":3217,"$$led":3218,"▁(obj":3219,"$$IndexOutOf":3220,"$$s.size()":3221,"$$Records":3222,"$$omin":3223,"$$DEFAULT_":3224,"$$HexDump.short":3225,"$$Strategy":3226,"$$gor":3227,"$$.size()":3228,"$$Su":3229,"$$Increment":3230,"$$letion":3231,"$$aton":3232,"▁scr":3233,"$$String(String":3234,"$$Prop":3235,"$$s[0]":3236,"▁Num":3237,"▁long[]":3238,"$$omaton":3239,"$$Any":3240,"▁IllegalArgumentException":3241,"▁grow":3242,"$$URL":3243,"$$TYP":3244,"▁System.ArgumentException(\"Unknown":3245,"$$GlobalReplicationGroup":3246,"$$ified":3247,"$$making":3248,"$$itial":3249,"▁scratch":3250,"▁Copy":3251,"▁Constants.":3252,"$$SH":3253,"$$estore":3254,"▁(is":3255,"▁bitsPerValue":3256,"$$chase":3257,"$$child":3258,"▁Date":3259,"$$urchase":3260,"▁DescribeDB":3261,"▁Create(TokenStream":3262,"$$Clone":3263,"$$.length);\n":3264,"$$Transport":3265,"▁create(TokenStream":3266,"$$AttributesRequest":3267,"$$ERROR":3268,"$$Properties":3269,"$$parator":3270,"▁\"2018":3271,"▁location":3272,"$$(i);\n":3273,"$$ucene":3274,"▁ByteBuffer":3275,"$$Bounds":3276,"▁Span":3277,"$$HealthCheck":3278,"$$uint)":3279,"$$dic":3280,"$$.size":3281,"$$IP":3282,"$$Solution":3283,"$$1[i]":3284,"$$Hum":3285,"$$Found":3286,"$$team":3287,"$$ship":3288,"$$Rect":3289,"▁Simple":3290,"$$s.Count":3291,"$$ocab":3292,"$$(int[]":3293,"▁arg0,":3294,"$$Cell(":3295,"$$.Length;\n":3296,"$$MapClass.":3297,"$$Workteam":3298,"$$ithm":3299,"▁Array.Copy":3300,"$$Profiles":3301,"▁length)":3302,"$$Pointer":3303,"$$Matchmaking":3304,"$$DocumentClassi":3305,"$$TransitGatewayRouteTable":3306,"$$EmailIdentity":3307,"$$NetworkInterface":3308,"$$Membership":3309,"$$Finding":3310,"$$Journey":3311,"$$ClassicLink":3312,"$$DeliveryStream":3313,"$$Assignment":3314,"$$gorithm":3315,"$$Human":3316,"▁Attach":3317,"$$.\");\n":3318,"$$T);\n":3319,"$$\"+":3320,"$$History":3321,"$$eration":3322,"▁\"/":3323,"$$escription":3324,"▁modify":3325,"▁ram":3326,"▁Ab":3327,"▁Raw":3328,"$$RevFilter":3329,"$$Left":3330,"▁CellRangeAddress":3331,"$$Boolean(args,":3332,"$$Old":3333,"$$.format":3334,"$$IO":3335,"$$(Object":3336,"$$LD":3337,"$$Y_":3338,"$$ariant":3339,"▁repo":3340,"$$rndQuery":3341,"$$idx":3342,"▁String[]":3343,"▁la":3344,"▁Add(":3345,"$$JobFlow":3346,"$$Transfer":3347,"▁java.nio.Read":3348,"▁input,":3349,"$$locate":3350,"$$.NUM_BYTES_":3351,"▁InvalidOperation":3352,"▁SizeOf":3353,"▁Buffer":3354,"▁load":3355,"$$Push":3356,"$$s();\n":3357,"$$Ret":3358,"$$Ren":3359,"$$ide":3360,"$$.IN":3361,"$$.term":3362,"$$(BytesRef":3363,"$$]/":3364,"▁ve":3365,"$$ild(":3366,"$$Id;\n":3367,"▁start;\n":3368,"▁length);\n":3369,"▁args):":3370,"$$URIish":3371,"▁spec":3372,"$$uri":3373,"$$hc":3374,"$$ific":3375,"$$pattern":3376,"$$).Append(\"\\n\");\n":3377,"$$ke":3378,"$$(short":3379,"$$10":3380,"$$Stat":3381,"$$sic":3382,"$$Content":3383,"▁Cancel":3384,"▁_in":3385,"▁executeModify":3386,"▁Invoke<Modify":3387,"$$argin":3388,"$$lauses":3389,"▁false);\n":3390,"▁value;\n}":3391,"$$MessageFormat":3392,"$$ONE":3393,"$$zero":3394,"▁dstOffset,":3395,"▁NGit.":3396,"▁ErrorEval.VALUE_INVALID;\n":3397,"$$FilterFactory(Map<String,String>":3398,"$$sm":3399,"$$Cal":3400,"$$o]":3401,"$$ply":3402,"$$.sub":3403,"$$[offset":3404,"$$BLE":3405,"$$lem":3406,"$$lector":3407,"$$ant":3408,"▁(@":3409,"▁sz":3410,"$$verse":3411,"▁this.field":3412,"$$.length)":3413,"$$imal":3414,"$$FirstRow":3415,"▁expected":3416,"$$java.util.":3417,"▁Boolean":3418,"▁IntervalSet":3419,"▁java.lang.String":3420,"$$dicated":3421,"▁Format":3422,"$$Password":3423,"$$ed(":3424,"$$vir":3425,"$$vision":3426,"$$onment":3427,"$$lease":3428,"$$change":3429,"$$Eng":3430,"▁this.f":3431,"$$ValueSource":3432,"$$(int)":3433,"▁Merge":3434,"▁string[]":3435,"▁Ac":3436,"▁srcCell":3437,"$$Algorithm":3438,"▁4;\n":3439,"$$s.length;":3440,"$$Processor":3441,"▁NGit.Api.":3442,"▁libcore.io.SizeOf":3443,"$$vironment":3444,"▁Comp":3445,"▁Exception(\"":3446,"$$ia":3447,"$$+\"":3448,"$$anges":3449,"▁clone":3450,"$$illi":3451,"▁executePut":3452,"▁Invoke<Put":3453,"$$(bytes":3454,"$$()));\n":3455,"$$CharBuffer":3456,"$$CharArray":3457,"$$.Length);\n}":3458,"$$Analyzer":3459,"▁2;\n":3460,"▁buffer.append(\"[":3461,"$$workbook":3462,"$$s[i].":3463,"▁use":3464,"$$Filter(input);\n}":3465,"$$(repo);\n}":3466,"$$(other":3467,"$$sp":3468,"$$pg":3469,"$$mis":3470,"$$[i];\n":3471,"$$3D":3472,"$$Folder":3473,"$$riptions":3474,"▁version":3475,"▁(v":3476,"▁(value":3477,"▁skip":3478,"▁font":3479,"▁\"]":3480,"▁\"<":3481,"▁table":3482,"▁info":3483,"▁CF":3484,"$$reset":3485,"$$Ident":3486,"$$Record();\n":3487,"▁width":3488,"$$.length);\n}":3489,"$$Worker":3490,"$$paces":3491,"$$OnPre":3492,"$$iled":3493,"▁buffer.append(\"[/":3494,"▁id)":3495,"$$ClientAnchor":3496,"$$SecurityGroupIngres":3497,"▁log":3498,"$$(path":3499,"$$VpnGateway":3500,"$$(bool":3501,"▁jj_expentries":3502,"$$ooter":3503,"$$c.":3504,"$$Slice":3505,"$$(start":3506,"$$[1":3507,"$$Body":3508,"$$write":3509,"$$4.":3510,"$$&&":3511,"$$onom":3512,"$$licy":3513,"▁operand":3514,"$$Resources":3515,"$$rie":3516,"▁(get":3517,"$$field_4_":3518,"▁MAX_":3519,"▁e);\n":3520,"$$andard":3521,"▁(!(o":3522,"▁@out":3523,"▁in.readUShort();\n":3524,"$$output":3525,"▁level":3526,"$$Skip":3527,"$$(name);\n":3528,"$$Private":3529,"$$Type.POST);\n}":3530,"$$Visib":3531,"$$Handler":3532,"▁RuntimeException(\"":3533,"▁setMethod(MethodType.POST);\n}":3534,"▁DEFAULT_":3535,"$$onomy":3536,"$$cast":3537,"$$asic":3538,"$$stic":3539,"$$OK":3540,"$$mary":3541,"$$.add":3542,"$$Delta":3543,"$$Test":3544,"$$Meet":3545,"$$LA":3546,"$$Bro":3547,"$$Fpg":3548,"$$7_":3549,"$$lip":3550,"$$Insi":3551,"▁(char":3552,"▁(result":3553,"$$InstanceRequest":3554,"$$dee":3555,"▁Doc":3556,"▁fra":3557,"▁StringUtil.":3558,"▁msg":3559,"$$Value)":3560,"▁Detect":3561,"$$Atten":3562,"▁|=":3563,"▁array,":3564,"▁0x00":3565,"$$Alt":3566,"▁-1;\n}":3567,"$$ClientCertificate":3568,"$$expected":3569,"$$Documentation":3570,"$$TransitGatewayMulti":3571,"$$StackSet":3572,"$$EmailTemplate":3573,"▁object)":3574,"▁out.writeShort(get":3575,"▁MethodType.POST":3576,"▁Grow":3577,"$$VpcEndpointConnection":3578,"$$VpcEndpointService":3579,"$$Deliverability":3580,"$$TrafficMirrorFilter":3581,"$$vious":3582,"$$ImportJob":3583,"$$TrialComponent":3584,"$$DirectConnectGatewayAssociation":3585,"$$iltin":3586,"$$Pipeline":3587,"$$mises":3588,"$$OnPremises":3589,"$$Meeting":3590,"$$Fpga":3591,"$$Insight":3592,"$$TransitGatewayMulticast":3593,"▁MethodType.POST;\n}":3594,"▁alt":3595,"$$ues":3596,"$$s\");\n":3597,"$$.compare":3598,"$$DI":3599,"$$='":3600,"$$=\").append(":3601,"$$aled":3602,"$$InBytes":3603,"▁s)":3604,"▁clear()":3605,"$$Under":3606,"▁tab":3607,"▁get(int":3608,"▁DescribeCluster":3609,"$$.get(":3610,"$$Round":3611,"$$Size()":3612,"▁Match":3613,"▁e.get":3614,"▁Pred":3615,"$$lay":3616,"▁Next":3617,"$$this.":3618,"▁\")\");\n":3619,"▁sealed":3620,"▁java.nio.ByteBuffer":3621,"▁out1.WriteByte(":3622,"$$PropertyID":3623,"$$Next()":3624,"▁append":3625,"$$Adap":3626,"$$Filter(input,":3627,"$$Tracking":3628,"$$.Append('\\n');\n":3629,"▁contains(":3630,"▁Numeric":3631,"▁^":3632,"▁utf":3633,"▁escher":3634,"$$source":3635,"$$supp":3636,"$$Non":3637,"$$ln":3638,"$$.Remove":3639,"$$.Compare":3640,"$$tten":3641,"$$Draw":3642,"$$Sum":3643,"$$Try":3644,"$$be":3645,"$$>(":3646,"$$=0":3647,"$$iness":3648,"$$etch":3649,"▁op":3650,"$$ritten":3651,"▁(o":3652,"▁(new":3653,"▁code":3654,"$$unk":3655,"▁mode":3656,"$$(b,":3657,"$$(block":3658,"$$Lookup":3659,"$$Acl":3660,"$$Interconnect":3661,"▁out.writeInt(":3662,"$$lanation":3663,"$$Command(repo);\n}":3664,"$$NetworkAcl":3665,"$$SkillGroup":3666,"$$Children":3667,"$$Hashtable":3668,"▁8)":3669,"$$Workspaces":3670,"▁RamUsageEstimator.NUM_BYTES_":3671,"$$.contain":3672,"$$hcp":3673,"$$supported":3674,"▁7":3675,"$$rule":3676,"$$cate":3677,"$$sq":3678,"$$tra":3679,"$$DFA":3680,"$$EAD":3681,"$$Has":3682,"$$Init":3683,"▁over":3684,"$$Request());\n}":3685,"▁i;\n":3686,"▁stat":3687,"▁target":3688,"$$Dedicated":3689,"▁getRecord":3690,"$$alse);\n":3691,"$$tener.":3692,"$$boolean":3693,"$$DBParameterGroup":3694,"▁in1.ReadUShort();\n":3695,"$$Exception(e":3696,"$$(long[]":3697,"$$raph":3698,"▁evaluate(int":3699,"▁Evaluate(int":3700,"$$Escape":3701,"$$PropertyIDMap.":3702,"$$ose":3703,"$$iew":3704,"$$.has":3705,"$$)o":3706,"▁payload":3707,"$$licate":3708,"$$Stati":3709,"$$ecutor":3710,"$$uplicate":3711,"$$Consum":3712,"▁decode":3713,"▁null\");\n":3714,"$$Id;\n}":3715,"$$yper":3716,"$$RecordS":3717,"$$.get().":3718,"$$(\"/":3719,"$$.length;\n":3720,"▁true);\n":3721,"▁supp":3722,"$$Transform":3723,"▁files":3724,"▁field)":3725,"▁char[":3726,"$$REC":3727,"$$REF":3728,"$$ORM":3729,"$$Disable":3730,"▁jj_gen":3731,"▁Character":3732,"$$Status":3733,"$$Changed":3734,"$$skip":3735,"▁ArrayList<>();\n":3736,"$$Backup":3737,"$$Frag":3738,"$$module":3739,"▁interval":3740,"$$ReceiptRuleSet":3741,"$$Property(PropertyIDMap.":3742,"▁la1token":3743,"$$Statistic":3744,"$$Property(PropertyIDMap.P":3745,"▁or":3746,"▁avail":3747,"$$Mutable":3748,"$$[index":3749,"$$revi":3750,"$$arn":3751,"▁region":3752,"$$ores":3753,"$$Stage":3754,"$$externSheet":3755,"▁(count":3756,"$$():":3757,"▁ctx":3758,"▁tag":3759,"▁_b":3760,"▁range":3761,"▁equal":3762,"$$ender":3763,"$$Short(data,":3764,"▁Not":3765,"$$TermFreq":3766,"$$icture":3767,"$$CacheParameterGroup":3768,"$$ight":3769,"▁out1.WriteInt(":3770,"$$LastRow":3771,"$$ParseUtils.":3772,"▁Fields":3773,"$$HexDump.Short":3774,"$$(boolean":3775,"$$CTION":3776,"▁Integer":3777,"$$Origin":3778,"$$Encoding":3779,"▁@object)":3780,"$$Engine":3781,"$$s.Add(":3782,"$$eo":3783,"$$ive":3784,"$$iterator":3785,"$$lr":3786,"$$lue":3787,"$$.put":3788,"$$T>":3789,"$$Tables":3790,"$$(HSSF":3791,"$$Weight":3792,"$$LU":3793,"$$Hsm":3794,"$$Footer":3795,"$$wo":3796,"$$anization":3797,"▁((int":3798,"$$Exponent":3799,"▁fa":3800,"▁Credential":3801,"$$Environment":3802,"$$s();\n}":3803,"▁_last":3804,"$$s[index":3805,"▁0)return":3806,"▁field_6_":3807,"$$(null":3808,"$$SheetName":3809,"▁filter":3810,"$$(offset":3811,"$$ImageAttribute":3812,"▁bytesRemaining":3813,"$$Ix,":3814,"$$LOW":3815,"$$Detach":3816,"$$(JGitText.Get":3817,"$$StreamingDistribution":3818,"$$LOCK_SIZE":3819,"$$Property(PropertyIDMap.PID_":3820,"▁((int)((":3821,"$$rr":3822,"$$Normal":3823,"$$.p":3824,"$$.Sub":3825,"$$tt":3826,"$$_ERROR":3827,"$$ond":3828,"▁normal":3829,"$$Exact":3830,"$$At(":3831,"$$Lower":3832,"$$ical":3833,"▁size()":3834,"▁sizeInBytes":3835,"▁java.nio.Buffer":3836,"$$FirstColumn":3837,"▁out.writeByte(":3838,"▁CharsRef":3839,"$$POI":3840,"$$byte[]":3841,"$$Lexer":3842,"$$CHAR":3843,"$$letionPolicy":3844,"$$AnyObjectId":3845,"$$Adapter":3846,"$$TryGet":3847,"$$oF":3848,"$$O_":3849,"$$iable":3850,"$$.Write":3851,"$$_col":3852,"$$Break":3853,"$$lit":3854,"▁pri":3855,"▁newArray":3856,"▁\":":3857,"$$upto":3858,"▁_first":3859,"▁this.p":3860,"▁Deregister":3861,"$$Set<":3862,"$$))return":3863,"$$aged":3864,"$$Param":3865,"▁Null":3866,"$$.length;":3867,"$$gument":3868,"▁Lex":3869,"$$Faces":3870,"▁end,":3871,"$$Script":3872,"$$erialization":3873,"$$eme":3874,"▁subfilter":3875,"▁proper":3876,"$$Handle":3877,"$$PublicKey":3878,"$$Logger.":3879,"$$Entity":3880,"▁OperandResolver.":3881,"▁IllegalStateException(\"":3882,"▁RawParseUtils.":3883,"▁InvalidOperationException(\"":3884,"$$Broker":3885,"▁Row":3886,"▁and":3887,"$$sure":3888,"$$operand":3889,"$$fy":3890,"$$las":3891,"$$Mark":3892,"$$Blank":3893,"$$String();\n":3894,"$$escape":3895,"$$idate":3896,"▁dir":3897,"▁directory":3898,"▁_re":3899,"▁mod":3900,"$$vault":3901,"$$Loop":3902,"▁StringBuilder(":3903,"$$tributes":3904,"▁args,":3905,"$$.length,":3906,"$$ByteArray":3907,"$$pare":3908,"▁size)":3909,"▁0x0":3910,"$$Common":3911,"$$config":3912,"▁count)":3913,"▁3;\n":3914,"$$Enabled":3915,"$$Enumerator":3916,"$$Credentials":3917,"$$Recogn":3918,"▁arr":3919,"▁Iterator<":3920,"▁Compare":3921,"$$Pending":3922,"$$sFrom":3923,"$$ganization":3924,"$$mChannel":3925,"$$manticContext":3926,"$$IAM":3927,"$$Sand":3928,"$$Sources":3929,"$$brevi":3930,"$$Ebs":3931,"$$Led":3932,"$$_C":3933,"$$_len":3934,"$$YP":3935,"$$19":3936,"$$2.":3937,"$$K;\n":3938,"$$reen":3939,"$$reat":3940,"$$erce":3941,"▁replacement":3942,"$$Ind":3943,"$$Reserv":3944,"$$Store":3945,"▁v)":3946,"▁(max":3947,"▁(pos":3948,"▁((byte":3949,"▁b.":3950,"▁cur":3951,"▁\"+":3952,"$$Conference":3953,"$$ollow":3954,"$$Recom":3955,"$$Id()":3956,"▁DescribeReserved":3957,"$$Project":3958,"$$ValueTo":3959,"▁buffer,":3960,"▁1;\n}":3961,"$$Type,":3962,"▁rv":3963,"$$endar":3964,"$$Filter(TokenStream":3965,"▁byteBuffer":3966,"$$agation":3967,"$$Int(data,":3968,"$$DBProxy":3969,"$$PolicyAssignment":3970,"$$SnapshotRequest":3971,"$$DomainTransfer":3972,"▁seek":3973,"▁second":3974,"$$ImageBuilder":3975,"$$Organization":3976,"▁gen":3977,"$$AccountSetting":3978,"▁minSize)":3979,"▁4)":3980,"$$Bits":3981,"▁precedence":3982,"$$Authorizer":3983,"$$AddressBook":3984,"$$ResolverEndpoint":3985,"$$Next())":3986,"$$VoiceConnectorTermination":3987,"$$RestApi":3988,"$$Second":3989,"$$boxChannel":3990,"$$QualificationType":3991,"$$AssessmentRun":3992,"$$Entities":3993,"$$MonitoringSchedule":3994,"$$axonomy":3995,"$$LaunchTemplate":3996,"$$duct":3997,"$$TypedLinkFacet":3998,"▁IOUtils.":3999},"merges":["$$e $$s","$$; $$\n","$$r $$e","$$o $$n","$$e $$r","$$i $$n","$$t $$i","$$) $$;\n","$$a $$l","▁ $$=","$$t $$e","▁ $${","$$ti $$on","▁{ $$\n","$$q $$u","$$es $$t","$$l $$i","$$qu $$est","$$a $$r","▁ $$re","$$s $$t","$$e $$t","$$e $$n","▁ $$p","$$u $$b","$$t $$u","$$R $$e","$$li $$c","$$I $$n","$$o $$r","$$ub $$lic","▁p $$ublic","$$s $$e","▁ $$o","$$p $$tion","$$r $$n","$$tu $$rn","▁re $$turn","$$l $$e","$$a $$n","$$in $$g","$$c $$e","$$R $$es","$$t $$h","$$s $$h","▁ $$n","$$ption $$s","$$S $$t","$$e $$x","$$a $$te","$$r $$i","▁ $$v","▁ $$(","▁ $$b","$$);\n $$}","$$Re $$quest","$$e $$c","▁ $$i","$$in $$t","$$al $$l","$$p $$on","$$r $$ing","$$Res $$pon","$$Respon $$se","$$all $$er","$$ar $$sh","$$r $$o","$$arsh $$aller","▁o $$ptions","$$u $$l","$$( $$)","▁ $$}","▁} $$\n","$$e $$w","$$a $$m","$$a $$t","▁n $$ew","$$o $$k","$$f $$i","▁ $$s","$$e $$l","$$( $$re","$$c $$h","$$u $$t","$$en $$t","$$St $$ring","▁re $$quest","$$st $$an","$$i $$s","$$(re $$quest","$$f $$f","$$E $$x","$$( $$);\n","$$In $$stan","▁i $$f","▁ $$c","$$d $$(","$$Instan $$ce","▁ $$th","▁ $$int","$$;\n $$}","$$U $$n","$$C $$o","▁ $$In","$$l $$o","$$d $$e","$$t $$er","$$al $$u","▁ $$D","$$ec $$u","▁ $$f","$$G $$et","$$d $$ex","$$g $$et","$$a $$p","$$ri $$b","$$i $$t","$$i $$r","$$r $$a","$$u $$n","$$v $$ok","$$vok $$e","▁ $$+","$$u $$m","$$Un $$m","$$i $$l","$$M $$arshaller","▁In $$voke","$$Instance $$;\n","$$. $$Instance;\n","$$Request $$Marshaller","$$Response $$Unm","▁options $$.","▁request $$)","$$ResponseUnm $$arshaller","$$am $$e","$$ul $$t","▁ $$\"","$$i $$st","$$a $$d","$$p $$en","$$s $$i","▁ $$0","$$es $$c","$$u $$p","$$tu $$al","▁ $$st","$$rib $$e","$$ir $$tual","$$esc $$ribe","$$i $$d","$$C $$on","▁v $$irtual","$$a $$tion","$$ff $$er","$$L $$ist","$$pen $$d(","$$c $$k","$$u $$ffer","▁ $$t","$$i $$z","▁ $$d","$$re $$ate","▁ $$in","$$alu $$e","▁th $$is","$$In $$dex","$$or $$d","$$o $$re","$$m $$a","$$o $$l","$$ro $$w","$$el $$d","$$en $$g","$$s $$et","$$le $$te","$$eng $$th","$$ul $$l","$$v $$er","$$ent $$Ex","▁ $$String","▁ $$C","$$N $$ame","$$g $$e","$$m $$p","$$Re $$c","▁ $$ex","$$D $$e","$$. $$A","▁ $$S","$$ce $$ption","$$E $$n","$$a $$b","$$iz $$e","$$or $$t","$$ec $$t","▁ $$Get","$$s $$.","$$r $$es","$$s $$(","▁= $$=","$$C $$li","$$a $$s","$$o $$c","$$O $$ptions","$$y $$te","$$Res $$ult","▁n $$ull","▁ $$_","▁b $$e","$$T $$o","▁this $$.","▁ $$l","$$b $$j","$$ff $$set","$$un $$t","$$ecu $$tion","$$o $$t","▁v $$ar","$$fi $$eld","$$f $$ore","$$ra $$y","$$ecu $$te","$$ar $$t","$$o $$id","▁v $$oid","$$S $$h","$$[ $$]","$$(request $$);\n}","▁ex $$ecute","▁be $$fore","$$Cli $$entEx","$$(request $$);\n","$$Options $$();\n","$$Response $$>","▁options $$);\n}","$$(request $$,","▁Invoke $$<","▁Invoke $$Options();\n","$$RequestMarshaller $$.Instance;\n","▁options. $$RequestMarshaller","▁options. $$ResponseUnmarshaller","$$ResponseUnmarshaller $$.Instance;\n","$$ecution $$(request);\n","▁before $$ClientEx","$$Response> $$(request,","▁beforeClientEx $$ecution(request);\n","$$U $$p","$$p $$ut","$$E $$v","$$I $$d","$$ro $$up","$$e $$d","$$d $$ate","$$y $$p","$$u $$r","$$or $$m","▁ $$<","$$o $$d","▁th $$row","$$Rec $$ord","▁ $$get","$$p $$o","▁ $$m","▁D $$escribe","$$P $$o","$$Ex $$ception","$$a $$se","$$\" $$);\n","$$lo $$ck","$$A $$r","$$G $$roup","$$P $$ro","$$c $$t","$$bj $$ect","$$il $$d","$$ok $$en","$$ver $$ri","$$verri $$de","$$V $$alue","$$Up $$date","$$pend( $$\"","$$t $$y","$$m $$ent","▁D $$e","$$at $$a","$$.A $$p","$$. $$get","▁o $$verride","$$c $$tion","$$yp $$e","$$ar $$g","$$R $$o","$$. $$ap","$$C $$h","$$c $$o","▁b $$uffer","$$ex $$t","▁ $$!","$$( $$int","▁ $$>","▁ $$List","$$( $$\"","$$fi $$g","$$B $$u","$$s $$er","$$Q $$u","$$ab $$le","$$re $$am","▁ $$-","$$e $$y","$$S $$et","$$at $$ch","$$v $$e","$$si $$on","▁b $$o","$$c $$es","$$F $$i","▁C $$reate","$$r $$y","$$B $$uffer","▁! $$=","▁ $$I","$$( $$);\n}","▁ $$1","$$Con $$fig","▁De $$lete","$$L $$ength","$$Co $$unt","$$a $$ti","$$+ $$+","$$A $$t","$$Re $$f","$$field $$_","▁ $$j","$$) $$)","$$re $$n","$$St $$ream","▁o $$ut","$$Bu $$ild","$$t $$es","$$C $$l","$$y $$tes","$$T $$ype","$$ri $$te","$$S $$ize","$$on $$g","▁ $$w","$$er $$y","$$Co $$l","$$T $$oken","▁}\n $$}","$$e $$et","▁s $$et","$$u $$e","▁ $$M","$$v $$a","$$s $$,","$$s $$)","$$D $$escribe","$$O $$ffset","▁ $$&","▁ $$r","$$at $$or","$$Build $$er","$$p $$er","$$t $$a","$$\" $$,","$$st $$ring","$$Ar $$ray","$$s $$[","$$O $$bject","$$te $$m","▁ $$e","$$u $$st","$$Re $$ad","$$in $$al","▁ $$P","$$s $$Request","$$en $$d","$$F $$orm","▁st $$ring","▁ $$A","▁f $$or","$$l $$ength","▁null $$)","$$F $$il","$$i $$g","$$a $$ge","$$De $$lete","$$l $$a","$$C $$reate","$$Ev $$al","$$u $$le","$$er $$m","$$i $$f","$$Qu $$ery","$$ati $$c","$$o $$ub","$$o $$de","$$oub $$le","$$Sh $$ort","▁ $$el","$$si $$tion","$$m $$it","$$En $$d","▁ $$res","$$ter $$n","$$ma $$in","$$String $$()","$$al $$se","$$( $$b","$$o $$le","$$a $$va","$$fi $$c","$$a $$y","▁st $$atic","$$a $$th","$$b $$er","$$o $$ur","▁el $$se","$$L $$o","$$el $$l","$$or $$y","$$Ro $$w","$$a $$c","$$r $$c","$$P $$ar","$$D $$ata","$$a $$ck","$$or $$k","$$an $$d","▁0 $$)","$$t $$o","$$ole $$an","▁s $$b","$$er $$.","$$alu $$es","▁ $$B","$$ch $$ar","$$Fil $$ter","▁p $$o","$$a $$ch","$$ava $$.","▁f $$alse","$$te $$x","$$.Ap $$pend(\"","▁String $$Builder","$$ren $$t","▁( $$int","$$ra $$tion","$$d $$d","▁ $$N","$$\\ $$n","$$tex $$t","▁ $$Update","$$A $$c","$$our $$ce","$$v $$al","$$Co $$m","▁t $$o","$$en $$ti","$$ar $$ray","$$t $$rib","$$re $$d","▁in $$dex","▁ $$sh","$$ti $$l","▁b $$yte","▁v $$alue","$$um $$ber","$$te $$n","$$er $$i","$$.ap $$pend(\"","$$] $$;\n","$$T $$erm","$$1 $$.","$$r $$ue","$$s $$age","▁c $$o","▁ $$Re","$$b $$o","$$K $$ey","$$O $$f","$$te $$d","▁s $$rc","$$r $$an","$$m $$o","▁ $$field_","▁ $$arg","▁j $$ava.","▁ $$li","$$( $$String","$$l $$l","▁o $$ffset","$$u $$te","$$um $$n","$$as $$s","$$u $$ration","$$() $$)","$$C $$ell","▁f $$inal","$$St $$art","$$.ap $$pend(","▁ $$E","$$w $$ay","▁res $$ult","$$ust $$er","$$a $$g","$$ro $$m","$$In $$t","$$a $$sh","$$y $$s","$$Config $$uration","$$r $$or","$$an $$ge","$$Cl $$uster","$$Form $$at","▁ $$|","▁ $$:","$$G $$ate","$$Gate $$way","$$J $$o","$$on $$e","$$. $$length","$$T $$ext","$$Ch $$ar","$$At $$trib","$$Index $$,","$$Po $$lic","$$Fi $$eld","$$p $$y","$$f $$a","$$th $$is","$$ma $$x","$$sh $$ot","▁l $$ong","$$.Ap $$pend(","$$V $$p","$$n $$ap","$$ys $$tem","$$oc $$i","$$nap $$shot","$$qu $$al","$$. $$Length","$$( $$n","$$M $$ap","▁st $$art","$$D $$B","$$St $$ate","$$o $$m","▁bo $$ol","$$: $$\n","▁t $$rue","▁bo $$olean","▁o $$th","$$i $$]","$$R $$ule","$$Sh $$eet","$$re $$e","$$B $$lock","$$O $$ut","$$i $$o","$$. $$re","▁ $$k","$$a $$st","▁c $$ase","$$B $$yte","$$M $$od","$$i $$m","$$D $$oc","$$u $$f","▁ $$de","$$et $$er","$$am $$eter","$$g $$um","$$W $$rite","$$in $$dex","▁& $$&","$$B $$o","$$mo $$ve","$$B $$ytes","$$if $$y","$$entEx $$ception","$$\\n $$\");\n","▁0 $$;","▁ $$h","$$S $$ub","$$A $$p","$$A $$n","$$++ $$)","▁false $$;\n","$$i $$on","$$T $$ran","$$. $$Get","$$Jo $$b","$$un $$d","$$Fi $$le","$$I $$D","$$( $$d","$$Polic $$y","$$S $$e","$$s $$);\n","$$A $$s","▁ $$L","$$p $$t","$$ct $$ory","$$ur $$rent","$$gum $$entException","$$er $$sion","$$re $$a","$$Col $$umn","▁i $$s","$$W $$ork","$$ec $$k","$$S $$napshot","▁ $$a","▁S $$ystem","$$I $$N","$$. $$To","▁b $$lock","$$( $$string","▁l $$en","▁\" $$)","$$qual $$s(","▁0 $$;\n","$$o $$w","$$p $$a","$$i $$an","$$Co $$mp","$$co $$unt","$$in $$e","$$se $$d","▁s $$up","$$po $$s","$$er $$(","$$lo $$w","$$le $$g","$$Con $$n","$$o $$p","$$V $$ersion","$$En $$t","$$in $$k","$$ach $$e","$$M $$et","▁ $$To","$$es $$sage","$$o $$main","▁0 $$,","$$F $$a","$$v $$alue","$$io $$.","$$F $$or","$$Value $$Eval","$$i $$ce","$$) $$);\n","$$z $$e","$$() $$);\n","$$Tran $$s","$$it $$y","$$H $$ex","$$i $$re","▁ $$fi","$$f $$o","$$fic $$ation","▁| $$|","$$oci $$ate","$$er $$v","$$N $$umber","$$Id $$enti","$$s $$Response","$$F $$rom","▁ $$end","$$S $$S","$$ter $$ator","$$til $$.","$$T $$E","$$ces $$s","$$r $$ror","▁ $$field","▁i $$++)","$$U $$ser","$$A $$dd","$$mp $$l","$$ar $$y","$$ul $$a","$$Ent $$ry","$$s $$Result","$$In $$put","$$Ev $$alu","$$T $$ree","▁ $$ch","▁( $$!","$$Instan $$ces","$$si $$ze","▁> $$=","▁S $$et","▁c $$reate","$$as $$k","$$am $$es","$$\" $$)","▁b $$ase","$$in $$d","$$N $$o","▁d $$ouble","$$i $$c","$$S $$c","$$String $$();\n}","$$ter $$m","$$D $$omain","$$. $$to","$$Vp $$c","▁ $$R","▁ $$2","▁ $$H","$$( $$o","$$on $$t","$$p $$lic","$$gumentException $$(\"","$$i $$p","$$. $$w","$$j $$_","$$t $$le","$$ch $$er","$$lo $$at","▁ $$?","$$s $$(request);\n}","$$s $$RequestMarshaller.Instance;\n","$$s $$ResponseUnmarshaller.Instance;\n","$$s $$Response>(request,","$$S $$p","$$T $$ag","▁+ $$=","$$Par $$ameter","$$N $$ode","▁ $$@","$$g $$n","$$ut $$es","▁null $$;\n","$$Ev $$ent","$$po $$int","$$Out $$put","▁s $$ize","▁ $$char","$$. $$c","▁ $$F","$$( $$Delete","$$1 $$)","▁ $$'","$$1 $$_","$$( $$Get","▁oth $$er","$$y $$n","$$it $$tle","$$End $$ian","$$ittle $$Endian","$$p $$ort","▁v $$alues","$$fa $$ult","$$stan $$ce","▁d $$escribe","▁ $$array","$$( $$arg","$$s $$c","$$T $$_","▁n $$ame","$$O $$n","$$A $$L","$$eri $$al","▁C $$h","$$Type $$.","$$main $$ing","$$( $$Create","$$is $$ion","▁ $$*","$$T $$ask","$$ap $$e","$$plic $$ation","$$In $$fo","$$at $$tern","$$an $$n","$$C $$ache","$$R $$E","$$i $$th","$$n $$io.","$$ta $$in","▁true $$;\n","▁ $$)","$$I $$ma","$$ig $$h","▁( $$b","$$Short $$(","$$rea $$k","▁this $$;\n}","▁ $$Array","$$P $$h","$$fi $$x","$$ar $$d","$$i $$le","$$co $$de","$$leg $$al","$$t $$g","$$SS $$F","$$ce $$ll","▁ $$ValueEval","$$T $$e","$$++ $$]","▁li $$st","▁ $$max","$$l $$legal","$$. $$N","$$Lo $$g","$$lo $$ad","$$As $$s","$$ser $$t","$$End $$point","$$List $$<","$$R $$ange","$$O $$per","$$.re $$ad","$$G $$it","$$Exception $$(\"","$$[ $$i]","$$Identi $$ty","$$ti $$m","▁buffer $$.Append(\"","▁c $$on","$$N $$ames","$$po $$sition","$$M $$essage","$$De $$te","$$O $$R","▁b $$uf","$$Co $$py","$$Te $$mpl","$$P $$ath","$$al $$an","$$or $$d(","▁ $$se","$$n $$ame","$$S $$ch","▁0 $$x","$$.w $$rite","$$Con $$text","▁I $$llegal","$$Pro $$fi","$$(b $$yte","$$e $$m","$$ar $$get","$$res $$s","▁java. $$nio.","$$h $$od","$$In $$ter","$$r $$st","$$f $$orm","$$i $$ction","$$un $$ction","▁po $$s","$$c $$er","$$Ima $$ge","▁StringBuilder $$();\n","$$() $$);\n}","▁t $$ry","$$Attrib $$utes","$$() $$.","$$B $$alan","$$String $$(","$$ri $$ty","$$Rec $$ord(","$$e $$ad","$$- $$0","▁( $$(","$$ec $$tion","$$Com $$m","$$Templ $$ate","$$O $$r","$$Attrib $$ute","▁ $$up","▁l $$ength","$$a $$re","$$T $$ra","$$od $$ify","▁ $$.","$$bo $$ok","$$T $$im","$$() $$,","$$P $$ut","$$t $$ing","$$S $$T","▁ $$g","$$( $$s","$$u $$th","$$E $$R","$$Ar $$gumentException(\"","$$Form $$ula","$$re $$turn","$$ir $$st","$$l $$y","$$E $$rror","$$F $$F","▁to $$String()","▁To $$String()","$$1. $$Read","$$c $$on","$$S $$ecu","$$ar $$ch","$$a $$tu","▁k $$ey","$$mp $$ty","$$Balan $$cer","$$A $$l","$$es $$sion","▁- $$1","$$S $$ource","$$Secu $$rity","$$Pro $$per","$$L $$E","$$Object $$Id","$$o $$bject","$$O $$Exception","$$F $$irst","$$l $$u","$$h $$ile","$$um $$ent","$$le $$ment","▁in $$.read","$$2 $$0","$$Name $$,","$$Po $$sition","▁out $$.write","$$B $$y","$$s $$()","$$L $$ink","$$Re $$v","$$uth $$or","$$la $$g","$$Token $$Stream","$$tern $$al","▁ $$row","$$Po $$int","$$Short $$();\n","$$erv $$ed","$$u $$til.","$$Offset $$,","$$s $$;\n","$$M $$a","$$1 $$,","▁c $$atch","$$Lo $$ad","$$1. $$Write","▁ $$V","▁offset $$,","$$ann $$el","$$o $$f","▁buffer $$.append(\"","▁out $$1.Write","$$Ac $$count","$$ad $$d(","$$( $$Describe","▁d $$ata","$$V $$o","$$g $$ment","$$t $$oc","$$D $$is","▁value $$)","$$toc $$ol","$$Tim $$e","$$ab $$el","$$O $$N","▁in $$1.Read","$$s $$cher","▁i $$d","$$ra $$w","$$le $$ction","$$Com $$mit","$$( $$(","$$Row $$Index,","▁P $$ut","$$= $$\"","$$w $$ork","▁execute $$Describe","▁Invoke< $$Describe","$$v $$el","$$A $$ction","$$st $$art","▁in $$put","$$L $$e","▁b $$ytes","$$Cli $$ent","$$Conn $$ect","▁de $$lete","▁b $$reak","$$ig $$n","$$D $$ire","$$] $$\\n\");\n","$$er $$ge","$$d $$er","$$l $$ong","$$mp $$le","▁w $$hile","$$erial $$ize","$$u $$d","$$Trans $$it","$$3 $$2","$$Fa $$ctory","$$e $$igh","▁j $$j_","$$Offset $$++]","$$ap $$ac","$$Read $$er","$$n $$ew","$$l $$an","$$( $$f","▁c $$ol","$$iz $$er","▁M $$odify","$$te $$g","$$Pro $$tocol","▁> $$>","$$enti $$al","$$Comm $$and","$$t $$oken","$$l $$es","$$T $$h","$$ad $$d","$$la $$ce","$$( $$in","▁break $$;\n","$$M $$atch","$$c $$r","▁p $$ar","$$apac $$ity","$$E $$mpty","$$A $$T","$$ex $$p","$$red $$ential","$$Load $$Balancer","$$g $$ist","$$en $$ce","$$iz $$ation","$$Name $$)","$$.A $$r","$$s[ $$i]","$$ass $$ociate","$$Profi $$le","$$Security $$Group","$$B $$atch","$$Res $$ource","$$sh $$ort","$$Ro $$ute","▁List $$<","$$li $$mit","▁( $$c","$$s( $$Describe","▁co $$unt","$$(n $$ew","$$z $$er","$$2 $$_","▁in $$stance","$$s( $$List","$$Doc $$ument","$$ow $$n","$$e $$ren","$$I $$terator","▁p $$ut","$$i $$li","$$Ch $$annel","$$U $$til","$$Res $$ol","$$l $$en","$$k $$ey","▁f $$orm","▁src $$Column","$$( $$Update","$$W $$ith","$$Parameter $$Group","▁ $$St","$$V $$al","$$s $$ing","$$E $$_","$$Proper $$ty","$$o $$ut","$$l $$one","$$A $$R","$$b $$lock","$$er $$ti","$$Vo $$ice","$$Transit $$Gateway","▁execute $$Get","▁Invoke< $$Get","$$ili $$ty","▁\" $$20","▁t $$oken","$$P $$re","$$ath $$.","$$T $$arget","$$ot $$o","$$c $$ord","$$v $$alues","▁m $$in","$$S $$ession","$$\" $$;\n}","$$Exception $$(","$$ten $$er","▁ $$le","$$al $$y","$$P $$er","$$Ex $$p","$$St $$ack","▁ $$term","$$De $$p","$$p $$ar","▁s $$ub","▁ $$4","$$B $$it","▁re $$ad","$$Index $$)","▁\"20 $$1","$$( $$c","$$( $$_","$$ch $$or","▁e $$)","$$. $$set","▁throw $$s","$$Col $$lection","$$Input $$Stream","$$( $$I","$$' $$);\n","$$ul $$ti","$$T $$able","$$( $$this","$$D $$ouble","$$F $$le","$$Fle $$et","$$Ac $$cess","$$ma $$il","▁java. $$util.","▁n $$ext","$$lo $$ud","▁p $$re","$$Mod $$ify","$$D $$ate","$$ri $$ter","▁( $$this","$$Index $$);\n","$$V $$alues","$$Cl $$as","$$n $$ext","▁c $$urrent","$$pa $$ce","▁H $$SSF","$$(byte $$[]","$$U $$sage","$$T $$yp","$$E $$mail","▁execute $$Delete","▁Invoke< $$Delete","▁byte $$[]","$$gist $$er","$$R $$un","$$0 $$,","▁A $$dd","▁ $$/","$$V $$AL","$$F $$A","$$ta $$ch","$$eren $$ce","$$A $$uthor","▁sh $$eet","▁Ch $$ar","$$I $$p","$$le $$ar","▁S $$h","$$Ap $$plication","$$Conn $$ection","▁o $$bject","▁ $$lo","$$d $$d(","$$e $$ue","$$L $$ittleEndian","$$val $$id","$$ent $$ry","$$ct $$or","▁System $$.Ar","▁ $$T","$$U $$R","$$I $$s","$$A $$ut","$$\" $$;\n","$$Add $$ress","▁Illegal $$ArgumentException(\"","$$erti $$fic","▁< $$<","$$f $$low","$$I $$x","▁oth $$er.","$$ti $$es","▁( $$m","$$Request $$()","$$.To $$String();\n}","$$g $$g","$$t $$r","$$o $$st","$$et $$work","$$S $$I","$$S $$k","$$( $$p","$$Co $$de","▁C $$ell","$$Mod $$el","$$D $$E","▁p $$ro","$$At $$tach","$$pos $$it","$$N $$etwork","$$P $$a","$$s. $$length","▁l $$ast","▁execute $$Create","▁Invoke< $$Create","$$Con $$tain","$$Exception $$();\n","$$at $$es","▁ $$as","$$P $$tg","$$s. $$Length","▁src $$RowIndex,","▁n $$um","$$No $$ti","$$a $$ult","$$n $$own","$$L $$ast","▁st $$ate","$$En $$c","▁System $$.","$$re $$q","$$Cl $$ass","$$u $$tion","$$y $$ment","▁o $$bj","$$ing $$le","$$lo $$yment","▁< $$=","$$Dep $$loyment","$$s $$;\n}","$$w $$ord","▁re $$move","$$um $$p","$$posit $$ory","$$C $$ertific","$$o $$ffset","▁field_ $$1_","$$Evalu $$ation","$$M $$em","$$ize $$d","$$Vp $$n","$$eigh $$t","$$it $$or","$$iction $$ary","▁ $$qu","▁ $$Object","$$tim $$e","▁ $$u","$$M $$ode","$$Res $$erved","$$Par $$se","$$.to $$String();\n}","$$Oper $$ation","$$i $$tion","$$1 $$);\n","$$al $$ing","▁h $$ash","$$Resol $$ver","$$c $$lu","$$. $$E","▁n $$ot","$$U $$sed","$$Bo $$ok","$$b $$u","$$Sch $$ed","$$Noti $$fication","$$en $$c","$$S $$E","$$sh $$eet","▁execute $$List","▁Invoke< $$List","▁1 $$;\n","$$es $$s","$$ar $$k","▁f $$loat","$$Par $$ser","$$P $$erm","$$or $$ted","▁w $$rite","$$p $$lace","▁v $$al","▁I $$OException","▁Re $$v","▁up $$date","$$u $$s","$$stan $$t","▁D $$is","$$> $$();\n","$$F $$unction","$$Un $$i","▁ $$an","$$p $$re","$$k $$nown","$$ab $$ility","$$res $$ult","▁po $$sition","$$(arg $$s,","▁instance $$of","$$P $$attern","$$( $$char","▁sup $$er(","▁ $$3","$$is $$sion","▁out $$put","$$Query $$Node","$$Perm $$ission","$$l $$d","$$in $$ation","$$An $$d","▁ $$Start","$$s $$ub","$$i $$es","$$Buffer $$.","$$LittleEndian $$Output","$$N $$ext","$$ti $$ve","$$i $$fication","$$P $$O","$$e $$e","▁( $$n","▁co $$mp","$$(n $$ame","$$fa $$ce","$$U $$T","$$m $$in","$$A $$ll","$$On $$ly","$$-0 $$7","$$Connect $$or","$$Voice $$Connector","▁re $$f","$$an $$ce","$$Exception $$();\n}","▁sh $$ort","$$aly $$zer","$$g $$ion","$$) $$);\n}","$$0 $$0","$$pon $$ent","▁m $$_","$$++ $$;\n","$$ac $$et","$$DB $$Cluster","$$I $$d(","$$L $$O","$$L $$oc","$$il $$l","▁d $$oc","▁L $$ittleEndian","$$L $$is","$$if $$t","$$ac $$ter","$$form $$at","▁ $$ap","$$P $$red","$$f $$fic","$$D $$_","$$( $$t","$$v $$alu","$$n $$et","$$pen $$d","$$En $$able","$$l $$ation","$$W $$riter","$$up $$p","▁1 $$)","$$Tra $$ffic","$$ce $$i","▁ch $$eck","$$U $$L","$$m $$_","$$( $$index","$$St $$atu","$$ri $$ption","$$ec $$ision","▁sb $$.append(\"","$$um $$e","$$U $$til.","▁( $$_","$$Con $$stant","$$Record $$InputStream","$$on $$itor","▁( $$t","▁ $$Ref","$$Name $$);\n","$$Int $$(","▁fi $$rst","▁-1 $$;\n","▁de $$fault","$$Sc $$aling","▁ $$cell","$$o $$th","$$D $$ump","$$S $$yn","$$Hex $$Dump","$$a $$w","$$tu $$re","$$Un $$known","▁sb $$.Append(\"","$$Met $$hod","▁values $$[","$$- $$1","$$Mem $$ber","$$Uni $$code","$$3 $$_","$$_ $$B","$$et $$hod","$$Map $$.","▁ $$);\n","$$H $$ead","$$al $$k","▁d $$st","▁start $$,","▁(b $$yte","$$Inter $$face","$$Aut $$o","$$ti $$c","$$Evalu $$ate","$$Le $$vel","$$Util $$s.","$$or $$ig","▁sup $$er","$$c $$ol","$$v $$i","$$ul $$es","▁s $$yn","$$la $$st","▁par $$ameter","$$s $$:","$$. $$Copy","$$0 $$]","$$fi $$rst","$$Dete $$ction","$$n $$t","$$b $$yte","$$co $$py","$$Sched $$ule","$$s $$s","▁p $$ath","▁out.write $$Short(","$$Certific $$ate","$$M $$ulti","$$G $$ame","$$Re $$pository","▁o $$)","$$De $$fault","$$Sub $$sc","$$Sk $$ill","▁ $$q","$$l $$ter","$$Ch $$ild","▁M $$ethod","$$ust $$om","▁0x $$FF","$$I $$tem","$$.A $$dd(","$$oci $$ation","▁ $$File","$$I $$T","$$( $$TokenStream","$$H $$ash","$$ri $$es","▁i $$ter","▁t $$ype","$$Record $$.","$$Sub $$net","$$Entry $$<","$$N $$um","$$r $$int","$$L $$en","$$L $$ong","$$L $$abel","$$ate $$d","▁f $$ore","$$Ma $$x","▁out1.Write $$Short(","$$P $$art","$$s $$For","$$Ass $$ociation","$$Constant $$s.","$$L $$i","▁null $$;\n}","$$Ch $$eck","▁ $$8","$$( $$i","$$L $$ine","$$mp $$ort","▁index $$)","▁arg $$s)","▁ $$x","$$) $$.","$$( $$long","$$Re $$po","$$Id $$,","$$Typ $$es","$$r $$l","$$U $$rl","▁block $$s[","▁ $$text","$$s $$);\n}","$$re $$f","$$re $$ad","$$String $$>","▁P $$ar","$$D $$at","$$el $$ta","$$co $$mp","▁\") $$.Append(","$$Dat $$ab","$$U $$M","$$F $$req","$$w $$it","▁li $$mit","$$wit $$ch","▁ $$Term","▁( $$f","$$id $$th","$$Lis $$tener","$$ate $$g","$$fi $$er","$$Count $$)","$$Se $$qu","$$Record( $$RecordInputStream","$$B $$ase","▁m $$ust","▁Re $$move","$$U $$N","$$In $$teg","$$Po $$ol","▁M $$ath.","▁false $$;\n}","$$values $$Offset++]","▁values[ $$valuesOffset++]","$$C $$loud","$$th $$row","▁execute $$Update","▁Invoke< $$Update","$$eri $$es","$$Ap $$i","$$(d $$ouble","$$[ $$/","$$s. $$get","$$Pro $$v","$$Set $$ting","$$(in $$put","$$block $$s","▁ $$Ex","$$a $$il","$$i $$ff","$$- $$-","$$J $$Git","▁E $$rror","$$f $$in","$$A $$P","$$lic $$e","$$si $$gn","$$En $$um","▁this. $$_","▁ $$lock","$$g $$in","$$W $$ord","▁f $$rom","$$orm $$al","▁B $$ytes","$$Ph $$oto","$$Factory $$(","$$Datab $$ase","$$C $$redential","$$f $$t","$$] $$;\n}","$$E $$scher","$$Name $$(","$$Ch $$ange","$$field_ $$1_","$$tern $$Sheet","$$Z $$one","$$Re $$move","$$ry $$ption","$$ati $$ve","$$Byte $$Buffer","$$Work $$s","$$ord $$er","▁input $$)","$$Dire $$ctory","$$) $$,","$$K $$,","$$te $$ct","$$.Append(\" $$\\n\");\n","$$M $$erge","$$Res $$et","$$ri $$c","▁data $$,","$$r $$on","$$r $$ap","$$e $$quals(","$$o $$ptions","▁In $$dex","$$arg $$s.","$$ack $$ing","▁B $$atch","$$SI $$Z","▁as $$sert","$$p $$h","$$de $$d","▁arg $$s);\n","▁ $$6","$$E $$C","$$< $$string","$$F $$acet","$$Request $$(string","$$Po $$s","▁parameter $$s:","$$u $$c","$$Re $$lation","$$Request $$(String","$$ay $$load","$$4 $$_","▁re $$t","▁re $$maining","▁\" $$);\n","$$S $$_","$$ec $$ode","▁s $$witch","▁index $$,","▁co $$py","$$.append( $$'","$$Se $$arch","▁ $$Un","▁ $$Read","▁ $$Field","$$r $$am","$$s $$k","$$i $$mple","$$V $$ault","$$H $$and","$$2 $$,","$$ce $$d","▁( $$d","$$ch $$ron","$$De $$li","$$ata $$,","$$Se $$gment","▁V $$>","▁Bytes $$Ref","$$SIZ $$E","$$chron $$ized","$$r $$t","$$() $$.get","$$To $$Hex","▁sh $$ift","▁\") $$.append(","$$lone $$()","$$Enc $$ryption","▁blocks[ $$blocks","▁ $$Token","▁ $$entry","$$Re $$cei","$$.A $$s","$$Met $$ric","▁syn $$chronized","$$C $$ase","$$g $$es","▁+ $$+","▁B $$yte","$$DB $$Instance","$$bu $$g","$$Relation $$al","$$C $$ustom","$$N $$ot","$$A $$N","$$Y $$TE","$$ut $$able","▁int $$[]","$$Size $$)","$$Of $$(","▁E $$scher","▁form $$at","▁ $$add","$$S $$tem","$$E $$N","$$H $$SSF","▁re $$cord","▁N $$Git","▁iter $$ation","▁ $$y","$$c $$le","$$n $$um","▁ex $$p","$$. $$C","$$( $$List","$$F $$lag","▁true $$;\n}","$$An $$chor","▁ $$G","▁ $$ac","$$c $$ore","$$o $$pen","$$O $$pen","$$. $$next","$$H $$T","▁( $$I","$$si $$d","$$Qu $$eue","$$Sp $$ec","▁fore $$ach","$$ing $$s","$$ec $$ted","$$va $$il","$$j $$ava.","$$Ex $$ecution","$$lo $$sing","$$Ar $$g","▁sb $$.Append(","$$Comp $$are","$$C $$apacity","$$. $$_","$$S $$erv","$$F $$low","$$Filter $$Factory(","$$size $$()","$$Sequ $$ence","▁ $$at","$$P $$ack","$$S $$upp","$$Bytes $$Used","$$Val $$id","$$HexDump $$.","$$y $$le","$$lo $$b","$$rib $$ution","$$ist $$ribution","$$Bo $$und","$$enc $$losing","$$Loc $$al","$$.As $$sert","$$bug $$.Assert","$$Relational $$Database","▁ $$un","$$P $$S","$$g $$h","▁o $$ld","▁b $$u","$$Format $$ting","$$valu $$ate","$$c $$re","$$e $$er","$$. $$S","$$j $$ect","$$St $$r","$$Ph $$one","▁srcColumn $$Index,","$$ance $$l","$$Li $$mit","$$g $$.","$$St $$op","$$Value $$(","▁De $$bug.Assert","▁r $$ule","▁base $$(\"","$$Clas $$si","▁LittleEndian $$.","▁super $$(\"","$$P $$ublic","$$h $$o","$$e $$ed","$$T $$Y","$$Ref $$erence","$$Int $$32","$$o $$bj","$$D $$et","$$M $$onitor","$$E $$lement","▁( $$s","▁0 $$;\n}","▁St $$op","$$orig $$inal","$$e $$ma","$$ent $$ries","▁st $$op","$$Count $$);\n","$$h $$ash","$$i $$sh","$$2 $$)","$$lo $$c","$$.append(\" $$\\n\");\n","$$No $$te","$$.E $$quals(","$$HT $$T","▁ $$Protocol","$$y $$cle","$$it $$s","$$Ro $$om","▁A $$ss","$$(d $$ata,","$$Prov $$id","$$g $$res","$$T $$ri","$$F $$ont","$$Type. $$HTT","$$Type.HTT $$PS","$$S $$end","$$er $$ver","$$Re $$maining","$$Name $$;\n","$$Configuration $$Set","$$Vpc $$Endpoint","▁ $$Record","$$v $$ice","$$j $$j_","$$\" $$);\n}","$$Record $$)","$$JGit $$Text","$$lob $$al","$$P $$ri","$$h $$as","$$' $$:\n","▁c $$)","▁co $$m","▁field_ $$2_","$$Sch $$ema","$$Or $$d","$$o $$und","$$5 $$_","$$er $$)","$$in $$ue","$$Eval $$.","▁len $$)","$$Comp $$ar","▁0xFF $$;\n","$$s $$;","$$o $$s","$$V $$irtual","$$is $$Empty","$$.A $$dd","▁R $$un","$$FA $$UL","$$fi $$lter","▁in $$)","$$Map $$<","$$Bo $$olean","$$Sc $$ore","▁obj $$)","$$R $$est","$$' $$)","$$ch $$eck","$$String $$,","▁st $$r","$$Log $$g","$$Phone $$Number","$$u $$rn","$$O $$verride","$$. $$Set","$$In $$v","$$ta $$x","$$ass $$word","$$Oper $$and","▁Par $$se","$$A $$vail","$$Ex $$port","$$Dire $$ct","$$<string $$,","$$l $$ine","$$. $$add(","$$L $$ex","$$A $$M","$$A $$X","$$H $$e","$$ro $$und","$$Qu $$al","▁e $$quals(","$$\\n $$');\n","$$Com $$ponent","$$uf $$fix","▁Dis $$associate","$$P $$eer","$$L $$if","$$ce $$pt","$$ec $$ycle","$$Con $$ta","▁e $$valuate","$$(b $$o","$$\") $$.append(","$$Deli $$ver","$$Lif $$ecycle","$$Conta $$ct","$$S $$ec","$$B $$J","$$/ $$[","▁1 $$);\n","$$array $$copy","▁sh $$ape","▁R $$am","▁System. $$arraycopy","$$R $$ules","$$C $$O","$$) $$((","$$( $$s,","$$er $$ror","$$st $$ra","▁( $$re","$$Pro $$cess","▁System.Ar $$gumentException(\"","$$ced $$ence","▁ $$Evaluate","$$R $$aw","$$o $$te","$$O $$ffer","$$O $$BJ","$$n $$s","$$t $$ype","$$( $$st","$$A $$d","$$Work $$book","$$s $$tim","$$n $$ull","▁s $$erialize","$$Col $$or","$$UR $$I","▁ $$J","$$p $$ro","$$G $$lobal","$$ol $$d","$$Ac $$ti","▁ $$TokenStream","$$s( $$Get","▁result $$;\n}","$$.To $$String()","▁blocks[blocks $$Offset++]","▁Ass $$ociate","$$FAUL $$T_","$$c $$urrent","$$i $$fi","$$Re $$port","$$el $$d(","$$Sh $$ape","$$Fi $$eld(","▁I $$s","▁out $$)","$$Out $$Of","$$te $$p","$$ar $$m","▁S $$e","▁m $$atch","$$our $$ces","$$Add $$res","$$Ass $$ociate","$$VAL $$ID","$$Contain $$er","$$y $$m","$$De $$vice","$$Pro $$x","▁e $$lement","$$bo $$x","$$Tree $$Filter","▁@ $$Override","▁Array $$List<","$$cr $$\",","$$in $$ary","$$li $$st","$$ot $$al","$$Sheet $$Index","$$Sp $$ot","$$Rev $$ision","$$Client $$Vpn","$$Attach $$ment","$$Subsc $$ription","$$AP $$I","$$Serv $$ice","$$i $$)","$$. $$Is","$$M $$in","$$F $$I","$$lo $$g","$$ra $$se","▁S $$erialize","$$res $$sion","▁B $$o","▁len $$);\n","▁name $$,","$$VAL $$U","$$acking $$Array","$$O $$F","$$. $$d","$$b $$it","$$E $$>","$$B $$e","▁0 $$);\n","$$Bytes $$Ref","$$IN $$VALID","$$Author $$ization","$$ictionary $$<string,","$$Recei $$pt","$$u $$se","$$C $$all","$$. $$D","$$S $$ign","$$E $$stim","$$Entry< $$K,","$$Offer $$ing","$$U $$Short();\n","$$A $$gg","$$w $$ard","$$co $$m","▁byte $$Buffer.","▁col $$umn","$$clu $$de","▁ $$Con","$$C $$K","$$S $$ystem","$$z $$z","$$est $$ination","$$Re $$plication","▁c $$mp","$$ct $$x","▁li $$s","▁Array $$s.","$$Prox $$y","▁ $$en","$$s $$To","$$D $$istribution","$$( $$id","$$B $$ack","$$F $$ind","$$Ar $$gumentException","$$Count $$;\n","$$Filter $$(input","$$Dete $$ctor","$$(s $$rc","▁form $$ula","$$Head $$er","$$os $$ted","▁ $$all","$$u $$sh","$$G $$en","$$st $$ings","$$lo $$se","$$Ap $$p","▁le $$x","$$Syn $$tax","$$a $$ct","$$0 $$)","▁return $$;\n","▁s $$p","$$Name $$;\n}","▁E $$quals(","$$Byte $$(","$$Work $$flow","$$PO $$ST","$$oth $$er","▁p $$tr","$$Type. $$POST","$$Request() $$:","$$l $$ative","$$( $$m","$$( $$value","$$( $$Modify","$$1 $$\",","$$F $$ra","$$ing $$Job","▁( $$i","$$Id $$x","$$ten $$t","▁ch $$ild","▁>> $$>","$$Route $$Table","$$Detection $$Job","$$isEmpty $$())","$$Peer $$ing","$$T $$H","$$] $$);\n","$$V $$eri","$$Pa $$rent","$$c $$al","$$M $$o","$$ir $$ror","$$Name $$()","$$Dis $$associate","$$Pa $$ir","$$ee $$k","$$Only $$Buffer","▁ $$Query","▁ $$ArgumentException(\"","$$s $$With","$$i $$];\n","$$( $$e","▁o $$ff","$$ol $$der","▁I $$List<","▁byte $$[","$$Met $$ho","▁2 $$)","$$Works $$pace","$$Metho $$d(","▁ $$Reset","$$s $$um","▁re $$c","▁N $$umber","$$.Length $$);\n","$$Doc $$s","$$ire $$ctory","$$Evaluation $$Exception","$$gh $$t","$$g $$ress","$$V $$is","$$H $$osted","▁D $$ouble","▁in $$1)","▁buffer $$.ToString();\n}","$$per $$and","$$Tra $$ck","$$-1 $$1\",","$$Replication $$Group","$$S $$erver","$$( $$key","$$b $$ytes","$$M $$irror","$$in $$put","▁\" $$,","▁\" $$open","$$\") $$.Append(","▁in1.Read $$Short();\n","$$AT $$N","$$Auto $$Scaling","$$API $$\")","▁\"open $$API\")","$$C $$T","$$) $$:","$$(re $$po","$$Ex $$ternal","▁out $$1)","$$.N $$UM","$$p $$ing","$$. $$equals(","▁s $$ource","▁_ $$position","$$Id $$)","$$Eval $$)","$$.N $$ot","▁this._ $$enclosing","$$Hand $$l","$$li $$sh","$$short $$)","$$Usage $$Estim","$$Avail $$ability","$$UsageEstim $$ator","▁ $$raw","▁ $$original","$$C $$am","$$g $$ate","$$S $$ection","$$H $$IT","$$er $$,","$$ar $$pen","$$is $$on","▁field_ $$3_","$$Polic $$ies","$$Tran $$sition","$$pa $$ign","$$Ass $$ess","$$(char $$[]","$$Traffic $$Mirror","$$Game $$Session","$$Provid $$er","$$Virtual $$Interface","$$Qual $$ification","$$Cam $$paign","$$arpen $$.","$$Assess $$ment","$$v $$io","$$( $$JGitText","$$b $$ack","$$A $$li","$$V $$ol","$$al $$t","$$ri $$pt","$$Size $$,","$$end $$ing","$$.length $$()","▁Ch $$eck","$$(I $$LittleEndianOutput","$$ition $$al","$$v $$ate","$$g $$r","$$( $$LittleEndianOutput","$$_ $$SIZE","$$qu $$ery","▁p $$rint","$$le $$x","▁( $$p","$$si $$ve","$$s( $$new","$$Up $$to","$$sRequest $$());\n}","$$bo $$ard","▁arg $$s[","$$.Append( $$'","▁other $$)","▁con $$tain","▁ $$ord","▁ $$Write","▁ $$ObjectId","$$u $$re","$$0 $$x","$$6 $$-0","$$1 $$;\n","▁In $$teg","▁_ $$limit","$$gn $$izer","$$Range $$Address","▁in.read $$Short();\n","$$mple $$m","$$Reserved $$Instances","$$i $$stance","$$( $$array","$$( $$Put","$$F $$loat","$$te $$mp","$$Byte $$();\n","$$Al $$arm","▁srcColumn $$Index);\n","$$Pre $$fix","$$Per $$Value","▁qu $$ery","$$AX $$_","$$C $$E","$$m $$od","$$I $$mplem","$$t $$able","▁d $$o","▁System $$.Not","▁end $$)","$$Pred $$iction","$$Implem $$en","$$I $$mport","$$6 $$4","$$re $$gister","$$is $$sing","$$ad $$ata","▁S $$end","$$En $$ti","$$Stream $$ing","$$TE $$R","$$Subnet $$Group","▁i $$terator","$$ma $$k","$$ma $$sk","$$Rec $$o","$$eri $$c","$$Implemen $$ted","▁ $$add(","$$b $$uf","$$A $$rea","$$er $$ator","▁n $$umber","▁int $$[","▁In $$ter","$$un $$c","▁(int $$)","$$(o $$ut","$$Sp $$an","▁++ $$i)","$$a $$f","$$s $$or","$$D $$estination","$$ul $$ture","$$To $$(","▁sb $$.append(","▁Ram $$UsageEstimator","▁ $$[","$$O $$ri","$$O $$ver","$$D $$ash","$$< $$E>","$$6 $$_","$$Index $$;\n","▁this. $$m_","$$Short $$();\n}","$$(b $$uffer","$$Jo $$urn","$$ic $$ate","$$(o $$bject","▁@ $$in","▁\"201 $$7","$$place $$ment","▁(I $$OException","$$Monitor $$ing","$$Note $$book","$$Tri $$al","$$s $$Ref","$$N $$ull","$$g $$en","$$g $$roup","$$m $$d","$$re $$gate","▁( $$\"","$$ver $$t","$$Up $$load","$$ur $$sor","$$ta $$g","▁string $$>","$$Int $$();\n","$$ID $$_","▁an $$chor","$$comp $$are","$$stra $$int","$$f $$erence","$$0 $$);\n","$$ub $$lish","$$In $$valid","$$St $$yle","▁buffer $$.append(","▁res $$et","▁field_ $$4_","$$Met $$adata","▁\"201 $$6-0","$$UT $$F","▁Run $$time","▁Equals( $$object","$$s $$g","$$s $$on","$$G $$E","▁In $$t","▁f $$lag","▁S $$p","▁l $$ink","▁buffer $$.toString();\n}","$$string $$(","▁value $$;\n","▁key $$)","$$Acti $$v","$$Method( $$Method","$$U $$ri","$$S $$ingle","$$( $$Re","$$( $$result","$$st $$ate","▁set $$Method(Method","$$Fil $$l","$$Row $$,","▁block $$s","$$lu $$sh","▁ $$W","▁ $$%","$$p $$ic","▁o $$f","▁( $$EvaluationException","$$Name $$);\n}","$$od $$y","$$od $$es","▁pre $$fix","$$LO $$CK","$$OBJ $$EC","▁ $$ar","$$d $$Query","$$i $$ti","$$ul $$d","▁int $$er","▁\" $$c","$$pa $$rent","$$Fa $$ce","$$Dete $$ct","$$E_ $$INVALID","▁comp $$are","$$ToHex $$(","$$. $$f","$$M $$L","▁\" $$'","$$De $$fin","$$ect $$or","$$res $$erved","▁1 $$,","▁po $$s,","$$Term $$s","$$.c $$on","▁Rev $$Filter","$$Uri $$Pattern","▁ $$Operand","$$g $$round","$$l $$ink","$$I $$mpl","$$S $$3","$$L $$a","$$1 $$6","▁p $$a","▁if $$(","▁0 $$);\n}","$$En $$code","▁- $$1)","▁w $$ord","$$Query $$(","▁other $$Buffer","$$Error $$Eval","▁(this $$)","$$flow $$Exception();\n","$$cre $$ment","$$Dash $$board","▁Operand $$Resolver","$$h $$ead","$$a $$x","$$d $$itional","$$i $$.","$$. $$char","$$er $$Action","$$st $$r","▁buffer $$.Append(","$$Fil $$es","$$Evalu $$ator","$$(this $$,","$$its $$PerValue","$$Ord $$inal","$$Map< $$String,","$$N $$ew","$$m $$i","$$. $$is","$$T $$A","$$( $$w","$$A $$S","$$al $$th","$$Re $$gion","▁f $$in","$$s. $$add(","$$res $$h","$$Data $$set","$$ach $$ed","$$Ap $$ns","$$Identi $$fier","$$Connect $$Gateway","$$Traffic $$Policy","$$BytesUsed $$()","$$Direct $$ConnectGateway","▁equals( $$Object","$$Receipt $$Rule","▁off $$,","$$Notebook $$Instance","$$Activ $$ity","$$I $$ON","$$b $$s","$$L $$L","$$A $$rn","▁b $$)","▁m $$ark","$$val $$Set","▁result $$;\n","$$Names $$pace","▁g $$roup","$$Collection $$<","▁Sh $$arpen.","$$Photo $$\",","$$Call $$able","▁\"2016-0 $$6","$$ditional $$Formatting","$$u $$sed","$$s $$\",","$$s $$Key","$$g $$er","$$en $$e","$$en $$ten","$$un $$ch","$$ore $$Case","$$Char $$acter","$$pt $$r","$$ont $$inue","▁jj_ $$exp","$$_B $$YTE","$$Schedule $$d","$$Det $$ail","$$Eval. $$VALU","$$Agg $$regate","$$La $$unch","$$Eval.VALU $$E_INVALID","$$N $$G","$$m $$atch","$$k $$er","$$M $$P","$$W $$alk","$$V $$E","▁st $$ream","$$res $$sed","▁m $$ap","▁m $$essage","▁1 $$6","$$ack $$ed","$$ag $$es","$$Th $$read","$$(name $$,","▁default $$:\n","▁\"2017 $$-07","$$s $$By","$$C $$H","$$. $$value","$$k $$ip","$$= $$=","$$2 $$);\n","▁( $$e","▁( $$index","▁d $$ate","$$Type $$()","$$Configuration $$Request","$$Map $$ping","$$.to $$String()","▁con $$fig","$$lear $$();\n","$$-- $$;\n","▁bu $$ild","▁System.Not $$Implemented","▁System.NotImplemented $$Exception();\n}","$$v $$ed","$$. $$Format","$$A $$D","$$all $$y","$$fi $$le","$$ut $$f","$$arg $$s);\n","$$ID $$ictionary<string,","$$lan $$g.","$$Property $$(","▁IllegalArgumentException(\" $$Unknown","$$ontinue $$;\n","$$P $$ip","$$P $$tr","$$O $$p","$$n $$ect","$$m $$t","$$S $$m","$$( $$r","$$ok $$up","$$field_ $$2_","▁M $$utable","▁A $$n","$$Output $$Stream","$$(arg $$s)","$$Dis $$k","▁ap $$pend(","$$enten $$ce","$$a $$d(","$$i $$b","$$n $$er","$$. $$.","▁p $$attern","▁( $$start","▁i $$t","$$Con $$t","$$Or $$der","$$loud $$ph","▁(t $$rue","$$Cloud $$Photo\",","$$He $$alth","▁Serialize $$(ILittleEndianOutput","$$Vol $$ume","▁\"c $$loudph","$$Defin $$ition","▁\"2017-07 $$-11\",","▁\"cloudph $$oto","$$d $$u","$$. $$M","$$S $$imple","$$et $$ach","$$In $$gres","$$id $$r","▁d $$b","$$leg $$ate","$$(o $$th","$$ann $$ot","$$par $$am","$$Typ $$ed","$$Logg $$ing","▁serialize $$(LittleEndianOutput","▁pa $$rent","$$T $$N","▁In $$valid","▁d $$is","▁ex $$t","$$Pro $$gress","▁N $$B","$$val $$.","▁fi $$le","▁(! $$args.","▁base $$(args)","$$lan $$k","$$lear $$()","▁super( $$args);\n","$$-07 $$\",","▁Se $$arch","▁\"2016-06 $$-07\",","$$P $$ort","$$P $$ublish","$$u $$ser","$$a $$red","$$e $$k","$$e $$b","$$o $$uld","$$f $$er","$$( $$a","$$[ $$0]","$$H $$ost","$$ar $$cher","$$an $$g","▁( $$array","$$ro $$ot","$$it $$ation","▁S $$ub","▁l $$abel","$$Set $$(","$$ava $$il","$$Field $$Level","$$IN $$G","▁block $$s,","$$Tag $$sFor","▁name $$)","$$Clas $$s.","$$Parse $$Tree","$$Game $$Server","$$Integ $$ration","$$Compar $$ison","$$Inv $$itation","$$/[ $$Repo","$$Typed $$Link","▁(!args. $$isEmpty())","$$FieldLevel $$Encryption","$$m $$ap","$$t $$x","$$b $$uffer","$$F $$r","$$In $$tern","$$Con $$straint","$$ck $$et","$$Callable $$();\n","$$S $$tep","$$b $$ol","$$M $$an","$$on $$es","▁p $$art","▁v $$_","▁c $$lone()","$$si $$te","$$Name $$Record","$$Group $$Request","▁I $$O","$$)) $$.Append(\"\\n\");\n","$$Size $$Of","▁A $$TN","$$Term $$ination","▁field_ $$5_","$$Cluster $$Snapshot","$$Char $$Sequence","$$.Length $$;","▁fi $$ll","▁H $$ash","▁up $$to","$$con $$d","▁id $$x","$$ym $$bol","▁ $$TreeFilter","$$P $$ayload","$$f $$ont","$$I $$f","$$( $$field","$$] $$,","$$al $$et","$$st $$ream","▁( $$args.","▁b $$,","$$Ex $$ternSheet","▁c $$r","▁f $$unction","$$Id $$);\n","▁sup $$er.","$$Hex $$String(","▁char $$[]","$$par $$se","$$Enc $$od","$$Record. $$sid","▁ret $$val","$$Supp $$orted","$$ackingArray $$,","▁(true $$)","$$alet $$te","$$s $$ume","$$C $$urrent","$$o $$o","$$_ $$index","$$es $$cher","$$et $$Gateway","$$Con $$ditionalFormatting","▁_ $$d","$$Size $$);\n","$$trib $$ute","$$.Length $$)","▁values $$,","$$nt $$k","$$ateg $$y","▁Error $$Eval.VALUE_INVALID","▁com $$mit","$$Veri $$fication","$$Intern $$etGateway","$$R $$OR","$$V $$ector","$$ray $$.Copy","▁w $$ork","▁Re $$gister","▁\") $$\";\n}","$$.c $$reate","▁con $$text","$$Run $$time","▁System.Ar $$ray.Copy","$$Workflow $$Execution","$$ErrorEval $$();\n","▁ $$Exp","$$l $$ass","$$( $$Start","$$b $$core","▁( $$r","▁String $$Comparison","▁C $$lone()","$$s. $$Get","$$Pro $$pos","$$Ro $$le","$$field_ $$3_","$$Rule $$Context","$$.re $$move","▁h $$as","$$ian $$t","▁u $$ser","$$bcore $$.","$$Propos $$al","▁ $$Formula","▁ $$Enable","$$f $$lag","$$m $$er","$$. $$Create","$$M $$ath.","$$\\ $$\"","▁p $$tg","$$ex $$ternal","$$il $$t","$$Lo $$ck","$$bo $$ot","$$Collection $$s.","▁an $$alyzer","▁(args. $$Count","$$R $$O","$$C $$idr","$$b $$ase","$$Z $$ones","$$qu $$ire","$$In $$ternal","▁v $$ault","▁c $$ontinue;\n","$$ol $$ution","$$ver $$sion","$$Mod $$ification","▁(b $$lock","$$eigh $$ted","$$lace $$ment","$$Address $$es","$$Pred $$icate","▁NGit $$.Ap","$$OBJEC $$T_","▁ $$error","$$C $$ached","$$. $$Ordinal","$$D $$ecision","$$( $$@","$$E $$sc","$$_ $$M","$$_ $$options","$$F $$ull","$$2 $$;\n","▁s $$lice","▁th $$e","▁f $$ind","$$si $$tive","$$ab $$les","▁this. $$d","▁li $$bcore.","$$Cell $$s","$$.re $$maining","$$FilterFactory( $$Map<String,","$$FilterFactory( $$IDictionary<string,","$$Classi $$c","$$_BYTE $$S_","$$P $$lan","$$s $$es","$$m $$ark","$$. $$B","$$t $$al","$$D $$istance","$$S $$ort","$$] $$\");\n","$$E $$d","$$_ $$P","$$w $$er","▁c $$apacity","▁in $$sert","▁L $$ong","$$Vpc $$Peering","$$gn $$oreCase","▁values $$Offset,","$$Info $$.","$$Identity $$Pool","▁buffer.Append(\" $$[","$$Ma $$il","$$Usage $$Plan","$$Resolver $$Rule","▁iteration $$s)","▁iteration $$s;","$$Local $$Gateway","▁Debug.Assert $$(","$$Deliver $$y","▁blocks $$Offset,","$$MP $$TY","▁StringComparison $$.Ordinal","▁ $$on","$$c $$ation","$$O $$ption","$$. $$Count","$$A $$TE","▁\" $$Get","▁t $$otal","▁h $$ead","▁@ $$object","▁buffer.Append(\" $$[/","$$i $$al","$$i $$red","$$) $$return","$$_ $$1","$$() $$))","▁D $$E","▁\" $$\";\n","$$Pro $$tect","▁P $$tg","$$Data $$Source","$$ten $$sion","$$Key $$Pair","▁src $$Offset,","$$Policy $$Request","$$As $$sign","$$Instances $$Request","$$ind $$ow","$$OR $$D_","$$clu $$sive","▁Dis $$able","▁Number $$Eval","$$(array $$,","$$Pip $$el","▁ $$K","$$N $$O","$$N $$odes","$$f $$ter","$$W $$idth","$$B $$und","$$er $$r","$$an $$tic","▁( $$a","$$fi $$ll","▁+ $$\"","▁d $$ecision","▁S $$ize","▁I $$terator","▁set $$Protocol","▁r $$val","$$string $$>","▁sb $$.ToString();\n}","$$Bo $$ost","$$pt $$g","$$LE $$NG","$$Class $$().get","$$oth $$er.","▁LittleEndian. $$Put","$$Hosted $$Zone","$$antic $$Context","$$LENG $$TH","▁ $$5","$$C $$ancel","$$( $$get","$$W $$eb","$$in $$es","▁( $$arg","$$int $$)","$$ut $$or","▁d $$elta","$$Index $$);\n}","$$At $$t","$$Type $$().","$$Size $$;\n","▁sb $$.toString();\n}","▁java. $$lang.","▁Illegal $$State","$$s.Length $$;","$$col $$or","▁Protocol $$Type.HTTPS","▁lis $$tener","$$OnlyBuffer $$Exception();\n}","▁fin $$ally","▁libcore. $$io.","▁ $$temp","$$e $$g","$$C $$ateg","$$C $$ulture","$$n $$umber","$$. $$0","$$D $$ec","$$( $$Protocol","$$_ $$token","$$re $$cord","$$in $$ate","$$al $$e","$$sh $$ape","▁( $$in","▁( $$short)","▁s $$napshot","$$Index $$(","$$Index $$(index","▁_ $$c","$$co $$gnizer","▁- $$=","▁w $$alk","$$Com $$ment","$$File $$System","$$Ph $$rase","$$(f $$loat","$$Exp $$ression","▁qu $$eue","▁(byte $$)","▁setProtocol $$(Protocol","▁setProtocol(Protocol $$Type.HTTPS","$$P $$lacement","$$D $$ir","$$1 $$token","$$er $$Instance","$$ing $$Group","▁c $$ache","▁D $$etach","$$ist $$ory","▁l $$ine","$$Sh $$ingle","▁1 $$0","▁A $$p","$$mo $$te","$$con $$nect","▁Sh $$eet","$$us $$es","$$.append(' $$\\n');\n","▁LittleEndian. $$put","$$Ali $$as","$$p $$ath","$$. $$se","$$I $$M","$$( $$ValueEval","$$le $$d","▁( $$obj","$$Index $$OutOf","$$s. $$size()","$$Record $$s","$$om $$in","$$DE $$FAULT_","$$HexDump. $$short","$$Str $$ategy","$$g $$or","$$. $$size()","$$S $$u","$$In $$crement","$$le $$tion","$$at $$on","▁s $$cr","$$String $$(String","$$Pro $$p","$$s[ $$0]","▁N $$um","▁long $$[]","$$om $$aton","$$An $$y","▁Illegal $$ArgumentException","▁g $$row","$$UR $$L","$$TY $$P","▁System.ArgumentException(\" $$Unknown","$$Global $$ReplicationGroup","$$ifi $$ed","$$mak $$ing","$$iti $$al","▁scr $$atch","▁ $$Copy","▁ $$Constants.","$$S $$H","$$est $$ore","▁( $$is","▁b $$itsPerValue","$$ch $$ase","$$ch $$ild","▁D $$ate","$$ur $$chase","▁Describe $$DB","▁Create $$(TokenStream","$$Cl $$one","$$.length $$);\n","$$Trans $$port","▁create $$(TokenStream","$$Attributes $$Request","$$ER $$ROR","$$Proper $$ties","$$par $$ator","▁\"201 $$8","▁lo $$cation","$$(i $$);\n","$$uc $$ene","▁Byte $$Buffer","$$Bound $$s","▁Sp $$an","$$Health $$Check","$$u $$int)","$$d $$ic","$$. $$size","$$I $$P","$$S $$olution","$$1 $$[i]","$$H $$um","$$F $$ound","$$te $$am","$$sh $$ip","$$Rec $$t","▁S $$imple","$$s. $$Count","$$oc $$ab","$$(int $$[]","▁arg $$0,","$$Cell $$(","$$.Length $$;\n","$$Map $$Class.","$$Work $$team","$$ith $$m","▁Array $$.Copy","$$Profi $$les","▁length $$)","$$Point $$er","$$Match $$making","$$Document $$Classi","$$TransitGateway $$RouteTable","$$Email $$Identity","$$Network $$Interface","$$Member $$ship","$$Find $$ing","$$Journ $$ey","$$Classic $$Link","$$Delivery $$Stream","$$Assign $$ment","$$gor $$ithm","$$Hum $$an","▁ $$Attach","$$. $$\");\n","$$T $$);\n","$$\" $$+","$$H $$istory","$$er $$ation","▁\" $$/","$$esc $$ription","▁m $$odify","▁r $$am","▁A $$b","▁R $$aw","$$Rev $$Filter","$$Le $$ft","▁Cell $$RangeAddress","$$Boolean $$(args,","$$O $$ld","$$. $$format","$$I $$O","$$( $$Object","$$L $$D","$$Y $$_","$$ar $$iant","▁re $$po","$$rn $$dQuery","$$id $$x","▁String $$[]","▁l $$a","▁A $$dd(","$$Job $$Flow","$$Trans $$fer","▁java.nio. $$Read","▁input $$,","$$loc $$ate","$$.NUM $$_BYTES_","▁Invalid $$Operation","▁Size $$Of","▁ $$Buffer","▁ $$load","$$P $$ush","$$s $$();\n","$$R $$et","$$R $$en","$$i $$de","$$. $$IN","$$. $$term","$$( $$BytesRef","$$] $$/","▁v $$e","$$il $$d(","$$Id $$;\n","▁start $$;\n","▁length $$);\n","▁args) $$:","$$URI $$ish","▁sp $$ec","$$u $$ri","$$h $$c","$$i $$fic","$$p $$attern","$$) $$.Append(\"\\n\");\n","$$k $$e","$$( $$short","$$1 $$0","$$St $$at","$$si $$c","$$Con $$tent","▁C $$ancel","▁_ $$in","▁execute $$Modify","▁Invoke< $$Modify","$$arg $$in","$$la $$uses","▁false $$);\n","▁value $$;\n}","$$Message $$Format","$$ON $$E","$$zer $$o","▁dst $$Offset,","▁NGit $$.","▁ErrorEval.VALUE_INVALID $$;\n","$$FilterFactory(Map<String, $$String>","$$s $$m","$$C $$al","$$o $$]","$$p $$ly","$$. $$sub","$$[ $$offset","$$B $$LE","$$le $$m","$$le $$ctor","$$an $$t","▁( $$@","▁s $$z","$$ver $$se","▁this. $$field","$$.length $$)","$$im $$al","$$First $$Row","▁exp $$ected","$$java. $$util.","▁Bo $$olean","▁Inter $$valSet","▁java.lang. $$String","$$dic $$ated","▁ $$Format","$$P $$assword","$$e $$d(","$$v $$ir","$$v $$ision","$$on $$ment","$$le $$ase","$$ch $$ange","$$En $$g","▁this. $$f","$$Value $$Source","$$(int $$)","▁M $$erge","▁string $$[]","▁A $$c","▁src $$Cell","$$Al $$gorithm","▁4 $$;\n","$$s.length $$;","$$Process $$or","▁NGit.Ap $$i.","▁libcore.io. $$SizeOf","$$vir $$onment","▁ $$Comp","▁ $$Exception(\"","$$i $$a","$$+ $$\"","$$an $$ges","▁c $$lone","$$il $$li","▁execute $$Put","▁Invoke< $$Put","$$(b $$ytes","$$()) $$);\n","$$Char $$Buffer","$$Char $$Array","$$.Length $$);\n}","$$An $$alyzer","▁2 $$;\n","▁buffer.append(\" $$[","$$work $$book","$$s[i] $$.","▁u $$se","$$Filter(input $$);\n}","$$(repo $$);\n}","$$(oth $$er","$$s $$p","$$p $$g","$$m $$is","$$[ $$i];\n","$$3 $$D","$$F $$older","$$ri $$ptions","▁v $$ersion","▁( $$v","▁( $$value","▁s $$kip","▁f $$ont","▁\" $$]","▁\" $$<","▁t $$able","▁in $$fo","▁C $$F","$$res $$et","$$Id $$ent","$$Record $$();\n","▁w $$idth","$$.length $$);\n}","$$Work $$er","$$pa $$ces","$$On $$Pre","$$ile $$d","▁buffer.append(\" $$[/","▁id $$)","$$Client $$Anchor","$$SecurityGroup $$Ingres","▁lo $$g","$$(p $$ath","$$Vpn $$Gateway","$$(bo $$ol","▁jj_exp $$entries","$$oo $$ter","$$c $$.","$$S $$lice","$$( $$start","$$[ $$1","$$B $$ody","$$w $$rite","$$4 $$.","$$& $$&","$$on $$om","$$lic $$y","▁o $$perand","$$Res $$ources","$$ri $$e","▁( $$get","$$field_ $$4_","▁M $$AX_","▁e $$);\n","$$and $$ard","▁(! $$(o","▁@ $$out","▁in.read $$UShort();\n","$$out $$put","▁le $$vel","$$Sk $$ip","$$(name $$);\n","$$Pri $$vate","$$Type.POST $$);\n}","$$Vis $$ib","$$Handl $$er","▁Runtime $$Exception(\"","▁setMethod(Method $$Type.POST);\n}","▁DE $$FAULT_","$$onom $$y","$$c $$ast","$$a $$sic","$$s $$tic","$$O $$K","$$m $$ary","$$. $$add","$$D $$elta","$$T $$est","$$M $$eet","$$L $$A","$$B $$ro","$$F $$pg","$$7 $$_","$$li $$p","$$In $$si","▁( $$char","▁( $$result","$$Instance $$Request","$$de $$e","▁D $$oc","▁f $$ra","▁String $$Util.","▁m $$sg","$$Value $$)","▁De $$tect","$$At $$ten","▁| $$=","▁array $$,","▁0x $$00","$$Al $$t","▁-1 $$;\n}","$$Client $$Certificate","$$exp $$ected","$$Document $$ation","$$TransitGateway $$Multi","$$Stack $$Set","$$Email $$Template","▁object $$)","▁out.writeShort( $$get","▁Method $$Type.POST","▁G $$row","$$VpcEndpoint $$Connection","$$VpcEndpoint $$Service","$$Deliver $$ability","$$TrafficMirror $$Filter","$$vio $$us","$$Import $$Job","$$Trial $$Component","$$DirectConnectGateway $$Association","$$ilt $$in","$$Pipel $$ine","$$mis $$es","$$OnPre $$mises","$$Meet $$ing","$$Fpg $$a","$$Insi $$ght","$$TransitGatewayMulti $$cast","▁MethodType.POST $$;\n}","▁ $$alt","$$u $$es","$$s $$\");\n","$$. $$compare","$$D $$I","$$= $$'","$$= $$\").append(","$$al $$ed","$$In $$Bytes","▁s $$)","▁c $$lear()","$$Un $$der","▁t $$ab","▁get $$(int","▁Describe $$Cluster","$$.get $$(","$$Ro $$und","$$Size $$()","▁M $$atch","▁e $$.get","▁P $$red","$$la $$y","▁N $$ext","$$this $$.","▁\") $$\");\n","▁se $$aled","▁java.nio. $$ByteBuffer","▁out1.Write $$Byte(","$$Property $$ID","$$Next $$()","▁ap $$pend","$$Ad $$ap","$$Filter(input $$,","$$Track $$ing","$$.Append(' $$\\n');\n","▁contain $$s(","▁Num $$eric","▁ $$^","▁ $$utf","▁ $$escher","$$s $$ource","$$s $$upp","$$N $$on","$$l $$n","$$. $$Remove","$$. $$Compare","$$t $$ten","$$D $$raw","$$S $$um","$$T $$ry","$$b $$e","$$> $$(","$$= $$0","$$in $$ess","$$et $$ch","▁o $$p","$$ri $$tten","▁( $$o","▁( $$new","▁c $$ode","$$un $$k","▁m $$ode","$$(b $$,","$$(b $$lock","$$Lo $$okup","$$Ac $$l","$$Inter $$connect","▁out.write $$Int(","$$lan $$ation","$$Command $$(repo);\n}","$$Network $$Acl","$$Skill $$Group","$$Child $$ren","$$Hash $$table","▁8 $$)","$$Works $$paces","▁RamUsageEstimator $$.NUM_BYTES_","$$.con $$tain","$$hc $$p","$$supp $$orted","▁ $$7","$$r $$ule","$$c $$ate","$$s $$q","$$t $$ra","$$D $$FA","$$E $$AD","$$H $$as","$$In $$it","▁o $$ver","$$Request $$());\n}","▁i $$;\n","▁st $$at","▁t $$arget","$$De $$dicated","▁get $$Record","$$alse $$);\n","$$ten $$er.","$$bo $$olean","$$DB $$ParameterGroup","▁in1.Read $$UShort();\n","$$Exception( $$e","$$(long $$[]","$$rap $$h","▁evaluate $$(int","▁Evaluate $$(int","$$Esc $$ape","$$PropertyID $$Map.","$$o $$se","$$i $$ew","$$. $$has","$$) $$o","▁p $$ayload","$$lic $$ate","$$St $$ati","$$ec $$utor","$$up $$licate","$$Con $$sum","▁d $$ecode","▁null $$\");\n","$$Id $$;\n}","$$yp $$er","$$Record $$S","$$.get $$().","$$(\" $$/","$$.length $$;\n","▁true $$);\n","▁sup $$p","$$Trans $$form","▁fi $$les","▁field $$)","▁char $$[","$$RE $$C","$$RE $$F","$$OR $$M","$$Dis $$able","▁jj_ $$gen","▁Char $$acter","$$Statu $$s","$$Change $$d","$$sk $$ip","▁ArrayList< $$>();\n","$$Back $$up","$$Fra $$g","$$mod $$ule","▁inter $$val","$$ReceiptRule $$Set","$$Property( $$PropertyIDMap.","▁la $$1token","$$Stati $$stic","$$Property(PropertyIDMap. $$P","▁ $$or","▁ $$avail","$$M $$utable","$$[ $$index","$$re $$vi","$$ar $$n","▁re $$gion","$$or $$es","$$St $$age","$$ex $$ternSheet","▁( $$count","$$() $$:","▁c $$tx","▁t $$ag","▁_ $$b","▁r $$ange","▁e $$qual","$$end $$er","$$Short $$(data,","▁N $$ot","$$Term $$Freq","$$ic $$ture","$$Cache $$ParameterGroup","$$igh $$t","▁out1.Write $$Int(","$$Last $$Row","$$Parse $$Utils.","▁Field $$s","$$HexDump. $$Short","$$(bo $$olean","$$CT $$ION","▁Integ $$er","$$Ori $$gin","$$Encod $$ing","▁@object $$)","$$Eng $$ine","$$s $$.Add(","$$e $$o","$$i $$ve","$$i $$terator","$$l $$r","$$l $$ue","$$. $$put","$$T $$>","$$T $$ables","$$( $$HSSF","$$W $$eight","$$L $$U","$$H $$sm","$$F $$ooter","$$w $$o","$$an $$ization","▁( $$(int","$$Ex $$ponent","▁f $$a","▁C $$redential","$$En $$vironment","$$s( $$);\n}","▁_ $$last","$$s[ $$index","▁0) $$return","▁field_ $$6_","$$(n $$ull","$$Sheet $$Name","▁fi $$lter","$$(o $$ffset","$$Image $$Attribute","▁bytes $$Remaining","$$Ix $$,","$$LO $$W","$$Det $$ach","$$(JGitText $$.Get","$$Streaming $$Distribution","$$LOCK $$_SIZE","$$Property(PropertyIDMap.P $$ID_","▁((int $$)((","$$r $$r","$$N $$ormal","$$. $$p","$$. $$Sub","$$t $$t","$$_ $$ERROR","$$on $$d","▁n $$ormal","$$Ex $$act","$$At $$(","$$Lo $$wer","$$ic $$al","▁size $$()","▁size $$InBytes","▁java.nio. $$Buffer","$$First $$Column","▁out.write $$Byte(","▁Char $$sRef","$$PO $$I","$$byte $$[]","$$Lex $$er","$$CH $$AR","$$letion $$Policy","$$Any $$ObjectId","$$Adap $$ter","$$Try $$Get","$$o $$F","$$O $$_","$$i $$able","$$. $$Write","$$_ $$col","$$B $$reak","$$li $$t","▁p $$ri","▁new $$Array","▁\" $$:","$$up $$to","▁_ $$first","▁this. $$p","▁De $$register","$$Set $$<","$$)) $$return","$$age $$d","$$Par $$am","▁N $$ull","$$.length $$;","$$gum $$ent","▁L $$ex","$$Fa $$ces","▁end $$,","$$Sc $$ript","$$erial $$ization","$$em $$e","▁sub $$filter","▁pro $$per","$$Hand $$le","$$Public $$Key","$$Logg $$er.","$$Enti $$ty","▁OperandResolver $$.","▁IllegalState $$Exception(\"","▁Raw $$ParseUtils.","▁InvalidOperation $$Exception(\"","$$Bro $$ker","▁ $$Row","▁ $$and","$$s $$ure","$$o $$perand","$$f $$y","$$l $$as","$$M $$ark","$$B $$lank","$$String $$();\n","$$esc $$ape","$$id $$ate","▁d $$ir","▁d $$irectory","▁_ $$re","▁m $$od","$$va $$ult","$$Lo $$op","▁StringBuilder $$(","$$trib $$utes","▁arg $$s,","$$.length $$,","$$Byte $$Array","$$pa $$re","▁size $$)","▁0x $$0","$$Comm $$on","$$con $$fig","▁count $$)","▁3 $$;\n","$$Enable $$d","$$Enum $$erator","$$Credential $$s","$$Reco $$gn","▁ar $$r","▁Iterator $$<","▁ $$Compare","$$P $$ending","$$s $$From","$$g $$anization","$$m $$Channel","$$m $$anticContext","$$I $$AM","$$S $$and","$$S $$ources","$$b $$revi","$$E $$bs","$$L $$ed","$$_ $$C","$$_ $$len","$$Y $$P","$$1 $$9","$$2 $$.","$$K $$;\n","$$re $$en","$$re $$at","$$er $$ce","▁re $$placement","$$In $$d","$$Res $$erv","$$St $$ore","▁v $$)","▁( $$max","▁( $$pos","▁( $$(byte","▁b $$.","▁c $$ur","▁\" $$+","$$Con $$ference","$$ol $$low","$$Rec $$om","$$Id $$()","▁Describe $$Reserved","$$Pro $$ject","$$Value $$To","▁buffer $$,","▁1 $$;\n}","$$Type $$,","▁r $$v","$$end $$ar","$$Filter $$(TokenStream","▁byte $$Buffer","$$ag $$ation","$$Int $$(data,","$$DB $$Proxy","$$Policy $$Assignment","$$Snapshot $$Request","$$Domain $$Transfer","▁se $$ek","▁se $$cond","$$Image $$Builder","$$Or $$ganization","▁g $$en","$$Account $$Setting","▁min $$Size)","▁4 $$)","$$Bit $$s","▁pre $$cedence","$$Author $$izer","$$Address $$Book","$$Resolver $$Endpoint","$$Next $$())","$$VoiceConnector $$Termination","$$Rest $$Api","$$Sec $$ond","$$box $$Channel","$$Qualification $$Type","$$Assessment $$Run","$$Enti $$ties","$$Monitoring $$Schedule","$$ax $$onomy","$$Launch $$Template","$$du $$ct","$$TypedLink $$Facet","▁IO $$Utils."]}}