<pad>
<unk>
<cs>
</cs>
<CS>
</CS>
<java>
</java>
<JAVA>
</JAVA>
<cl>


!
"
#
$
%
&
'
(
)
*
+
,
-
.
/
0
1
2
3
4
5
6
7
8
9
:
;
<
=
>
?
@
A
B
C
D
E
F
G
H
I
J
K
L
M
N
O
P
Q
R
S
T
U
V
W
X
Y
Z
[
\
]
^
_
a
b
c
d
e
f
g
h
i
j
k
l
m
n
o
p
q
r
s
t
u
v
w
x
y
z
{
|
}
~
à
á
â
ä
å
é
ê
ì
í
î
ï
ò
ó
ô
ö
ù
ú
û
ü
а
е
и
н
о
щ
ъ
я
▁
$$P
$$u
$$r
$$c
$$h
$$a
$$s
$$e
$$R
$$v
$$d
$$C
$$N
$$o
$$O
$$f
$$i
$$n
$$g
$$p
$$U
$$m
$$l
$$.
$$I
$$t
$$;
$$

$$x
$$)
$$}
$$D
$$S
$$T
$$k
$$(
$$b
$$j
$$q
$$M
$$z
$$[
$$]
$$W
$$E
$$<
$$>
$$,
$$L
$$A
$$y
$$0
$$3
$$6
$$:
$$_
$$Y
$$V
$$B
$$+
$$!
$$G
$$"
$$1
$$H
$$F
$$Q
$$=
$$2
$$|
$$w
$$\
$$/
$$-
$$K
$$'
$$*
$$4
$$#
$$J
$$7
$$?
$${
$$X
$$~
$$5
$$@
$$Z
$$â
$$&
$$8
$$9
$$%
$$$
$$ú
$$^
$$é
$$е
$$н
$$ï
$$û
$$и
$$щ
$$а
$$я
$$ê
$$ò
$$å
$$ü
$$ù
$$ó
$$á
$$í
$$ä
$$î
$$à
$$ô
$$ì
$$о
$$ö
$$ъ
$$es
$$;

$$re
$$on
$$er
$$in
$$ti
$$);

$$al
▁=
$$te
▁{
$$tion
▁{

$$qu
$$est
$$li
$$quest
$$ar
▁re
$$st
$$et
$$en
▁p
$$ub
$$tu
$$Re
$$lic
$$In
$$or
$$ublic
▁public
$$se
▁o
$$ption
$$rn
$$turn
▁return
$$le
$$an
$$ing
$$ce
$$Res
$$th
$$sh
▁n
$$ptions
$$St
$$ex
$$ate
$$ri
▁v
▁(
▁b
$$);
}
$$Request
$$ec
▁i
$$int
$$all
$$pon
$$ring
$$Respon
$$Response
$$aller
$$arsh
$$ro
$$arshaller
▁options
$$ul
$$()
▁}
▁}

$$ew
$$am
$$at
▁new
$$ok
$$fi
▁s
$$el
$$(re
$$ch
$$ut
$$ent
$$String
▁request
$$stan
$$is
$$(request
$$ff
$$Ex
$$();

$$Instan
▁if
▁c
$$d(
$$Instance
▁th
▁int
$$;
}
$$Un
$$Co
▁In
$$lo
$$de
$$ter
$$alu
▁D
$$ecu
▁f
$$Get
$$dex
$$get
$$ap
$$rib
$$it
$$ir
$$ra
$$un
$$vok
$$voke
▁+
$$um
$$Unm
$$il
$$Marshaller
▁Invoke
$$Instance;

$$.Instance;

$$RequestMarshaller
$$ResponseUnm
▁options.
▁request)
$$ResponseUnmarshaller
$$ame
$$ult
▁"
$$ist
$$ad
$$pen
$$si
▁0
$$esc
$$up
$$tual
▁st
$$ribe
$$irtual
$$escribe
$$id
$$Con
▁virtual
$$ation
$$ffer
$$List
$$pend(
$$ck
$$uffer
▁t
$$iz
▁d
$$reate
▁in
$$alue
▁this
$$Index
$$ord
$$ore
$$ma
$$ol
$$row
$$eld
$$eng
$$set
$$lete
$$ength
$$ull
$$ver
$$entEx
▁String
▁C
$$Name
$$ge
$$mp
$$Rec
▁ex
$$De
$$.A
▁S
$$ception
$$En
$$ab
$$ize
$$ort
$$ect
▁Get
$$s.
$$res
$$s(
▁==
$$Cli
$$as
$$oc
$$Options
$$yte
$$Result
▁null
▁_
▁be
$$To
▁this.
▁l
$$bj
$$ffset
$$unt
$$ecution
$$ot
▁var
$$field
$$fore
$$ray
$$ecute
$$art
$$oid
▁void
$$Sh
$$[]
$$(request);
}
▁execute
▁before
$$ClientEx
$$(request);

$$Options();

$$Response>
▁options);
}
$$(request,
▁Invoke<
▁InvokeOptions();

$$RequestMarshaller.Instance;

▁options.RequestMarshaller
▁options.ResponseUnmarshaller
$$ResponseUnmarshaller.Instance;

$$ecution(request);

▁beforeClientEx
$$Response>(request,
▁beforeClientExecution(request);

$$Up
$$put
$$Ev
$$Id
$$roup
$$ed
$$date
$$yp
$$ur
$$orm
▁<
$$od
▁throw
$$Record
▁get
$$po
▁m
▁Describe
$$Po
$$Exception
$$ase
$$");

$$lock
$$Ar
$$Group
$$Pro
$$ct
$$bject
$$ild
$$oken
$$verri
$$verride
$$Value
$$Update
$$pend("
$$ty
$$ment
▁De
$$ata
$$.Ap
$$.get
▁override
$$ction
$$ype
$$arg
$$Ro
$$.ap
$$Ch
$$co
▁buffer
$$ext
▁!
$$(int
▁>
▁List
$$("
$$fig
$$Bu
$$ser
$$Qu
$$able
$$ream
▁-
$$ey
$$Set
$$atch
$$ve
$$sion
▁bo
$$ces
$$Fi
▁Create
$$ry
$$Buffer
▁!=
▁I
$$();
}
▁1
$$Config
▁Delete
$$Length
$$Count
$$ati
$$++
$$At
$$Ref
$$field_
▁j
$$))
$$ren
$$Stream
▁out
$$Build
$$tes
$$Cl
$$ytes
$$Type
$$rite
$$Size
$$ong
▁w
$$ery
$$Col
$$Token
▁}
}
$$eet
▁set
$$ue
▁M
$$va
$$s,
$$s)
$$Describe
$$Offset
▁&
▁r
$$ator
$$Builder
$$per
$$ta
$$",
$$string
$$Array
$$s[
$$Object
$$tem
▁e
$$ust
$$Read
$$inal
▁P
$$sRequest
$$end
$$Form
▁string
▁A
▁for
$$length
▁null)
$$Fil
$$ig
$$age
$$Delete
$$la
$$Create
$$Eval
$$ule
$$erm
$$if
$$Query
$$atic
$$oub
$$ode
$$ouble
$$Short
▁el
$$sition
$$mit
$$End
▁res
$$tern
$$main
$$String()
$$alse
$$(b
$$ole
$$ava
$$fic
$$ay
▁static
$$ath
$$ber
$$our
▁else
$$Lo
$$ell
$$ory
$$Row
$$ac
$$rc
$$Par
$$Data
$$ack
$$ork
$$and
▁0)
$$to
$$olean
▁sb
$$er.
$$alues
▁B
$$char
$$Filter
▁po
$$ach
$$ava.
▁false
$$tex
$$.Append("
▁StringBuilder
$$rent
▁(int
$$ration
$$dd
▁N
$$\n
$$text
▁Update
$$Ac
$$ource
$$val
$$Com
▁to
$$enti
$$array
$$trib
$$red
▁index
▁sh
$$til
▁byte
▁value
$$umber
$$ten
$$eri
$$.append("
$$];

$$Term
$$1.
$$rue
$$sage
▁co
▁Re
$$bo
$$Key
$$Of
$$ted
▁src
$$ran
$$mo
▁field_
▁arg
▁java.
▁li
$$(String
$$ll
▁offset
$$ute
$$umn
$$ass
$$uration
$$())
$$Cell
▁final
$$Start
$$.append(
▁E
$$way
▁result
$$uster
$$ag
$$rom
$$Int
$$ash
$$ys
$$Configuration
$$ror
$$ange
$$Cluster
$$Format
▁|
▁:
$$Gate
$$Gateway
$$Jo
$$one
$$.length
$$Text
$$Char
$$Attrib
$$Index,
$$Polic
$$Field
$$py
$$fa
$$this
$$max
$$shot
▁long
$$.Append(
$$Vp
$$nap
$$ystem
$$oci
$$napshot
$$qual
$$.Length
$$(n
$$Map
▁start
$$DB
$$State
$$om
▁bool
$$:

▁true
▁boolean
▁oth
$$i]
$$Rule
$$Sheet
$$ree
$$Block
$$Out
$$io
$$.re
▁k
$$ast
▁case
$$Byte
$$Mod
$$im
$$Doc
$$uf
▁de
$$eter
$$ameter
$$gum
$$Write
$$index
▁&&
$$Bo
$$move
$$Bytes
$$ify
$$entException
$$\n");

▁0;
▁h
$$Sub
$$Ap
$$An
$$++)
▁false;

$$ion
$$Tran
$$.Get
$$Job
$$und
$$File
$$ID
$$(d
$$Policy
$$Se
$$s);

$$As
▁L
$$pt
$$ctory
$$urrent
$$gumentException
$$ersion
$$rea
$$Column
▁is
$$Work
$$eck
$$Snapshot
▁a
▁System
$$IN
$$.To
▁block
$$(string
▁len
▁")
$$quals(
▁0;

$$ow
$$pa
$$ian
$$Comp
$$count
$$ine
$$sed
▁sup
$$pos
$$er(
$$low
$$leg
$$Conn
$$op
$$Version
$$Ent
$$ink
$$ache
$$Met
▁To
$$essage
$$omain
▁0,
$$Fa
$$value
$$io.
$$For
$$ValueEval
$$ice
$$));

$$ze
$$());

$$Trans
$$ity
$$Hex
$$ire
▁fi
$$fo
$$fication
▁||
$$ociate
$$erv
$$Number
$$Identi
$$sResponse
$$From
▁end
$$SS
$$terator
$$til.
$$TE
$$cess
$$rror
▁field
▁i++)
$$User
$$Add
$$mpl
$$ary
$$ula
$$Entry
$$sResult
$$Input
$$Evalu
$$Tree
▁ch
▁(!
$$Instances
$$size
▁>=
▁Set
▁create
$$ask
$$ames
$$")
▁base
$$ind
$$No
▁double
$$ic
$$Sc
$$String();
}
$$term
$$Domain
$$.to
$$Vpc
▁R
▁2
▁H
$$(o
$$ont
$$plic
$$gumentException("
$$ip
$$.w
$$j_
$$tle
$$cher
$$loat
▁?
$$s(request);
}
$$sRequestMarshaller.Instance;

$$sResponseUnmarshaller.Instance;

$$sResponse>(request,
$$Sp
$$Tag
▁+=
$$Parameter
$$Node
▁@
$$gn
$$utes
▁null;

$$Event
$$point
$$Output
▁size
▁char
$$.c
▁F
$$(Delete
$$1)
▁'
$$1_
$$(Get
▁other
$$yn
$$ittle
$$Endian
$$ittleEndian
$$port
▁values
$$fault
$$stance
▁describe
▁array
$$(arg
$$sc
$$T_
▁name
$$On
$$AL
$$erial
▁Ch
$$Type.
$$maining
$$(Create
$$ision
▁*
$$Task
$$ape
$$plication
$$Info
$$attern
$$ann
$$Cache
$$RE
$$ith
$$nio.
$$tain
▁true;

▁)
$$Ima
$$igh
▁(b
$$Short(
$$reak
▁this;
}
▁Array
$$Ph
$$fix
$$ard
$$ile
$$code
$$legal
$$tg
$$SSF
$$cell
▁ValueEval
$$Te
$$++]
▁list
▁max
$$llegal
$$.N
$$Log
$$load
$$Ass
$$sert
$$Endpoint
$$List<
$$Range
$$Oper
$$.read
$$Git
$$Exception("
$$[i]
$$Identity
$$tim
▁buffer.Append("
▁con
$$Names
$$position
$$Message
$$Dete
$$OR
▁buf
$$Copy
$$Templ
$$Path
$$alan
$$ord(
▁se
$$name
$$Sch
▁0x
$$.write
$$Context
▁Illegal
$$Profi
$$(byte
$$em
$$arget
$$ress
▁java.nio.
$$hod
$$Inter
$$rst
$$form
$$iction
$$unction
▁pos
$$cer
$$Image
▁StringBuilder();

$$());
}
▁try
$$Attributes
$$().
$$Balan
$$String(
$$rity
$$Record(
$$ead
$$-0
▁((
$$ection
$$Comm
$$Template
$$Or
$$Attribute
▁up
▁length
$$are
$$Tra
$$odify
▁.
$$book
$$Tim
$$(),
$$Put
$$ting
$$ST
▁g
$$(s
$$uth
$$ER
$$ArgumentException("
$$Formula
$$return
$$irst
$$ly
$$Error
$$FF
▁toString()
▁ToString()
$$1.Read
$$con
$$Secu
$$arch
$$atu
▁key
$$mpty
$$Balancer
$$Al
$$ession
▁-1
$$Source
$$Security
$$Proper
$$LE
$$ObjectId
$$object
$$OException
$$First
$$lu
$$hile
$$ument
$$lement
▁in.read
$$20
$$Name,
$$Position
▁out.write
$$By
$$s()
$$Link
$$Rev
$$uthor
$$lag
$$TokenStream
$$ternal
▁row
$$Point
$$Short();

$$erved
$$util.
$$Offset,
$$s;

$$Ma
$$1,
▁catch
$$Load
$$1.Write
▁V
▁offset,
$$annel
$$of
▁buffer.append("
▁out1.Write
$$Account
$$add(
$$(Describe
▁data
$$Vo
$$gment
$$toc
$$Dis
▁value)
$$tocol
$$Time
$$abel
$$ON
▁in1.Read
$$scher
▁id
$$raw
$$lection
$$Commit
$$((
$$RowIndex,
▁Put
$$="
$$work
▁executeDescribe
▁Invoke<Describe
$$vel
$$Action
$$start
▁input
$$Le
▁bytes
$$Client
$$Connect
▁delete
▁break
$$ign
$$Dire
$$]\n");

$$erge
$$der
$$long
$$mple
▁while
$$erialize
$$ud
$$Transit
$$32
$$Factory
$$eigh
▁jj_
$$Offset++]
$$apac
$$Reader
$$new
$$lan
$$(f
▁col
$$izer
▁Modify
$$teg
$$Protocol
▁>>
$$ential
$$Command
$$token
$$les
$$Th
$$add
$$lace
$$(in
▁break;

$$Match
$$cr
▁par
$$apacity
$$Empty
$$AT
$$exp
$$redential
$$LoadBalancer
$$gist
$$ence
$$ization
$$Name)
$$.Ar
$$s[i]
$$associate
$$Profile
$$SecurityGroup
$$Batch
$$Resource
$$short
$$Route
▁List<
$$limit
▁(c
$$s(Describe
▁count
$$(new
$$zer
$$2_
▁instance
$$s(List
$$Document
$$own
$$eren
$$Iterator
▁put
$$ili
$$Channel
$$Util
$$Resol
$$len
$$key
▁form
▁srcColumn
$$(Update
$$With
$$ParameterGroup
▁St
$$Val
$$sing
$$E_
$$Property
$$out
$$lone
$$AR
$$block
$$erti
$$Voice
$$TransitGateway
▁executeGet
▁Invoke<Get
$$ility
▁"20
▁token
$$Pre
$$ath.
$$Target
$$oto
$$cord
$$values
▁min
$$Session
$$";
}
$$Exception(
$$tener
▁le
$$aly
$$Per
$$Exp
$$Stack
▁term
$$Dep
$$par
▁sub
▁4
$$Bit
▁read
$$Index)
▁"201
$$(c
$$(_
$$chor
▁e)
$$.set
▁throws
$$Collection
$$InputStream
$$(I
$$');

$$ulti
$$Table
$$(this
$$Double
$$Fle
$$Fleet
$$Access
$$mail
▁java.util.
▁next
$$loud
▁pre
$$Modify
$$Date
$$riter
▁(this
$$Index);

$$Values
$$Clas
$$next
▁current
$$pace
▁HSSF
$$(byte[]
$$Usage
$$Typ
$$Email
▁executeDelete
▁Invoke<Delete
▁byte[]
$$gister
$$Run
$$0,
▁Add
▁/
$$VAL
$$FA
$$tach
$$erence
$$Author
▁sheet
▁Char
$$Ip
$$lear
▁Sh
$$Application
$$Connection
▁object
▁lo
$$dd(
$$eue
$$LittleEndian
$$valid
$$entry
$$ctor
▁System.Ar
▁T
$$UR
$$Is
$$Aut
$$";

$$Address
▁IllegalArgumentException("
$$ertific
▁<<
$$flow
$$Ix
▁other.
$$ties
▁(m
$$Request()
$$.ToString();
}
$$gg
$$tr
$$ost
$$etwork
$$SI
$$Sk
$$(p
$$Code
▁Cell
$$Model
$$DE
▁pro
$$Attach
$$posit
$$Network
$$Pa
$$s.length
▁last
▁executeCreate
▁Invoke<Create
$$Contain
$$Exception();

$$ates
▁as
$$Ptg
$$s.Length
▁srcRowIndex,
▁num
$$Noti
$$ault
$$nown
$$Last
▁state
$$Enc
▁System.
$$req
$$Class
$$ution
$$yment
▁obj
$$ingle
$$loyment
▁<=
$$Deployment
$$s;
}
$$word
▁remove
$$ump
$$pository
$$Certific
$$offset
▁field_1_
$$Evaluation
$$Mem
$$ized
$$Vpn
$$eight
$$itor
$$ictionary
▁qu
▁Object
$$time
▁u
$$Mode
$$Reserved
$$Parse
$$.toString();
}
$$Operation
$$ition
$$1);

$$aling
▁hash
$$Resolver
$$clu
$$.E
▁not
$$Used
$$Book
$$bu
$$Sched
$$Notification
$$enc
$$SE
$$sheet
▁executeList
▁Invoke<List
▁1;

$$ess
$$ark
▁float
$$Parser
$$Perm
$$orted
▁write
$$place
▁val
▁IOException
▁Rev
▁update
$$us
$$stant
▁Dis
$$>();

$$Function
$$Uni
▁an
$$pre
$$known
$$ability
$$result
▁position
$$(args,
▁instanceof
$$Pattern
$$(char
▁super(
▁3
$$ission
▁output
$$QueryNode
$$Permission
$$ld
$$ination
$$And
▁Start
$$sub
$$ies
$$Buffer.
$$LittleEndianOutput
$$Next
$$tive
$$ification
$$PO
$$ee
▁(n
▁comp
$$(name
$$face
$$UT
$$min
$$All
$$Only
$$-07
$$Connector
$$VoiceConnector
▁ref
$$ance
$$Exception();
}
▁short
$$alyzer
$$gion
$$));
}
$$00
$$ponent
▁m_
$$++;

$$acet
$$DBCluster
$$Id(
$$LO
$$Loc
$$ill
▁doc
▁LittleEndian
$$Lis
$$ift
$$acter
$$format
▁ap
$$Pred
$$ffic
$$D_
$$(t
$$valu
$$net
$$pend
$$Enable
$$lation
$$Writer
$$upp
▁1)
$$Traffic
$$cei
▁check
$$UL
$$m_
$$(index
$$Statu
$$ription
$$ecision
▁sb.append("
$$ume
$$Util.
▁(_
$$Constant
$$RecordInputStream
$$onitor
▁(t
▁Ref
$$Name);

$$Int(
▁first
▁-1;

▁default
$$Scaling
▁cell
$$oth
$$Dump
$$Syn
$$HexDump
$$aw
$$ture
$$Unknown
▁sb.Append("
$$Method
▁values[
$$-1
$$Member
$$Unicode
$$3_
$$_B
$$ethod
$$Map.
▁);

$$Head
$$alk
▁dst
▁start,
▁(byte
$$Interface
$$Auto
$$tic
$$Evaluate
$$Level
$$Utils.
$$orig
▁super
$$col
$$vi
$$ules
▁syn
$$last
▁parameter
$$s:
$$.Copy
$$0]
$$first
$$Detection
$$nt
$$byte
$$copy
$$Schedule
$$ss
▁path
▁out.writeShort(
$$Certificate
$$Multi
$$Game
$$Repository
▁o)
$$Default
$$Subsc
$$Skill
▁q
$$lter
$$Child
▁Method
$$ustom
▁0xFF
$$Item
$$.Add(
$$ociation
▁File
$$IT
$$(TokenStream
$$Hash
$$ries
▁iter
▁type
$$Record.
$$Subnet
$$Entry<
$$Num
$$rint
$$Len
$$Long
$$Label
$$ated
▁fore
$$Max
▁out1.WriteShort(
$$Part
$$sFor
$$Association
$$Constants.
$$Li
▁null;
}
$$Check
▁8
$$(i
$$Line
$$mport
▁index)
▁args)
▁x
$$).
$$(long
$$Repo
$$Id,
$$Types
$$rl
$$Url
▁blocks[
▁text
$$s);
}
$$ref
$$read
$$String>
▁Par
$$Dat
$$elta
$$comp
▁").Append(
$$Datab
$$UM
$$Freq
$$wit
▁limit
$$witch
▁Term
▁(f
$$idth
$$Listener
$$ateg
$$fier
$$Count)
$$Sequ
$$Record(RecordInputStream
$$Base
▁must
▁Remove
$$UN
$$Integ
$$Pool
▁Math.
▁false;
}
$$valuesOffset++]
▁values[valuesOffset++]
$$Cloud
$$throw
▁executeUpdate
▁Invoke<Update
$$eries
$$Api
$$(double
$$[/
$$s.get
$$Prov
$$Setting
$$(input
$$blocks
▁Ex
$$ail
$$iff
$$--
$$JGit
▁Error
$$fin
$$AP
$$lice
$$sign
$$Enum
▁this._
▁lock
$$gin
$$Word
▁from
$$ormal
▁Bytes
$$Photo
$$Factory(
$$Database
$$Credential
$$ft
$$];
}
$$Escher
$$Name(
$$Change
$$field_1_
$$ternSheet
$$Zone
$$Remove
$$ryption
$$ative
$$ByteBuffer
$$Works
$$order
▁input)
$$Directory
$$),
$$K,
$$tect
$$.Append("\n");

$$Merge
$$Reset
$$ric
▁data,
$$ron
$$rap
$$equals(
$$options
▁Index
$$args.
$$acking
▁Batch
$$SIZ
▁assert
$$ph
$$ded
▁args);

▁6
$$EC
$$<string
$$Facet
$$Request(string
$$Pos
▁parameters:
$$uc
$$Relation
$$Request(String
$$ayload
$$4_
▁ret
▁remaining
▁");

$$S_
$$ecode
▁switch
▁index,
▁copy
$$.append('
$$Search
▁Un
▁Read
▁Field
$$ram
$$sk
$$imple
$$Vault
$$Hand
$$2,
$$ced
▁(d
$$chron
$$Deli
$$ata,
$$Segment
▁V>
▁BytesRef
$$SIZE
$$chronized
$$rt
$$().get
$$ToHex
▁shift
▁").append(
$$lone()
$$Encryption
▁blocks[blocks
▁Token
▁entry
$$Recei
$$.As
$$Metric
▁synchronized
$$Case
$$ges
▁++
▁Byte
$$DBInstance
$$bug
$$Relational
$$Custom
$$Not
$$AN
$$YTE
$$utable
▁int[]
$$Size)
$$Of(
▁Escher
▁format
▁add
$$Stem
$$EN
$$HSSF
▁record
▁NGit
▁iteration
▁y
$$cle
$$num
▁exp
$$.C
$$(List
$$Flag
▁true;
}
$$Anchor
▁G
▁ac
$$core
$$open
$$Open
$$.next
$$HT
▁(I
$$sid
$$Queue
$$Spec
▁foreach
$$ings
$$ected
$$vail
$$java.
$$Execution
$$losing
$$Arg
▁sb.Append(
$$Compare
$$Capacity
$$._
$$Serv
$$Flow
$$FilterFactory(
$$size()
$$Sequence
▁at
$$Pack
$$Supp
$$BytesUsed
$$Valid
$$HexDump.
$$yle
$$lob
$$ribution
$$istribution
$$Bound
$$enclosing
$$Local
$$.Assert
$$bug.Assert
$$RelationalDatabase
▁un
$$PS
$$gh
▁old
▁bu
$$Formatting
$$valuate
$$cre
$$eer
$$.S
$$ject
$$Str
$$Phone
▁srcColumnIndex,
$$ancel
$$Limit
$$g.
$$Stop
$$Value(
▁Debug.Assert
▁rule
▁base("
$$Classi
▁LittleEndian.
▁super("
$$Public
$$ho
$$eed
$$TY
$$Reference
$$Int32
$$obj
$$Det
$$Monitor
$$Element
▁(s
▁0;
}
▁Stop
$$original
$$ema
$$entries
▁stop
$$Count);

$$hash
$$ish
$$2)
$$loc
$$.append("\n");

$$Note
$$.Equals(
$$HTT
▁Protocol
$$ycle
$$its
$$Room
▁Ass
$$(data,
$$Provid
$$gres
$$Tri
$$Font
$$Type.HTT
$$Type.HTTPS
$$Send
$$erver
$$Remaining
$$Name;

$$ConfigurationSet
$$VpcEndpoint
▁Record
$$vice
$$jj_
$$");
}
$$Record)
$$JGitText
$$lobal
$$Pri
$$has
$$':

▁c)
▁com
▁field_2_
$$Schema
$$Ord
$$ound
$$5_
$$er)
$$inue
$$Eval.
▁len)
$$Compar
▁0xFF;

$$s;
$$os
$$Virtual
$$isEmpty
$$.Add
▁Run
$$FAUL
$$filter
▁in)
$$Map<
$$Boolean
$$Score
▁obj)
$$Rest
$$')
$$check
$$String,
▁str
$$Logg
$$PhoneNumber
$$urn
$$Override
$$.Set
$$Inv
$$tax
$$assword
$$Operand
▁Parse
$$Avail
$$Export
$$Direct
$$<string,
$$line
$$.add(
$$Lex
$$AM
$$AX
$$He
$$round
$$Qual
▁equals(
$$\n');

$$Component
$$uffix
▁Disassociate
$$Peer
$$Lif
$$cept
$$ecycle
$$Conta
▁evaluate
$$(bo
$$").append(
$$Deliver
$$Lifecycle
$$Contact
$$Sec
$$BJ
$$/[
▁1);

$$arraycopy
▁shape
▁Ram
▁System.arraycopy
$$Rules
$$CO
$$)((
$$(s,
$$error
$$stra
▁(re
$$Process
▁System.ArgumentException("
$$cedence
▁Evaluate
$$Raw
$$ote
$$Offer
$$OBJ
$$ns
$$type
$$(st
$$Ad
$$Workbook
$$stim
$$null
▁serialize
$$Color
$$URI
▁J
$$pro
$$Global
$$old
$$Acti
▁TokenStream
$$s(Get
▁result;
}
$$.ToString()
▁blocks[blocksOffset++]
▁Associate
$$FAULT_
$$current
$$ifi
$$Report
$$eld(
$$Shape
$$Field(
▁Is
▁out)
$$OutOf
$$tep
$$arm
▁Se
▁match
$$ources
$$Addres
$$Associate
$$VALID
$$Container
$$ym
$$Device
$$Prox
▁element
$$box
$$TreeFilter
▁@Override
▁ArrayList<
$$cr",
$$inary
$$list
$$otal
$$SheetIndex
$$Spot
$$Revision
$$ClientVpn
$$Attachment
$$Subscription
$$API
$$Service
$$i)
$$.Is
$$Min
$$FI
$$log
$$rase
▁Serialize
$$ression
▁Bo
▁len);

▁name,
$$VALU
$$ackingArray
$$OF
$$.d
$$bit
$$E>
$$Be
▁0);

$$BytesRef
$$INVALID
$$Authorization
$$ictionary<string,
$$Receipt
$$use
$$Call
$$.D
$$Sign
$$Estim
$$Entry<K,
$$Offering
$$UShort();

$$Agg
$$ward
$$com
▁byteBuffer.
▁column
$$clude
▁Con
$$CK
$$System
$$zz
$$estination
$$Replication
▁cmp
$$ctx
▁lis
▁Arrays.
$$Proxy
▁en
$$sTo
$$Distribution
$$(id
$$Back
$$Find
$$ArgumentException
$$Count;

$$Filter(input
$$Detector
$$(src
▁formula
$$Header
$$osted
▁all
$$ush
$$Gen
$$stings
$$lose
$$App
▁lex
$$Syntax
$$act
$$0)
▁return;

▁sp
$$Name;
}
▁Equals(
$$Byte(
$$Workflow
$$POST
$$other
▁ptr
$$Type.POST
$$Request():
$$lative
$$(m
$$(value
$$(Modify
$$1",
$$Fra
$$ingJob
▁(i
$$Idx
$$tent
▁child
▁>>>
$$RouteTable
$$DetectionJob
$$isEmpty())
$$Peering
$$TH
$$]);

$$Veri
$$Parent
$$cal
$$Mo
$$irror
$$Name()
$$Disassociate
$$Pair
$$eek
$$OnlyBuffer
▁Query
▁ArgumentException("
$$sWith
$$i];

$$(e
▁off
$$older
▁IList<
▁byte[
$$Metho
▁2)
$$Workspace
$$Method(
▁Reset
$$sum
▁rec
▁Number
$$.Length);

$$Docs
$$irectory
$$EvaluationException
$$ght
$$gress
$$Vis
$$Hosted
▁Double
▁in1)
▁buffer.ToString();
}
$$perand
$$Track
$$-11",
$$ReplicationGroup
$$Server
$$(key
$$bytes
$$Mirror
$$input
▁",
▁"open
$$").Append(
▁in1.ReadShort();

$$ATN
$$AutoScaling
$$API")
▁"openAPI")
$$CT
$$):
$$(repo
$$External
▁out1)
$$.NUM
$$ping
$$.equals(
▁source
▁_position
$$Id)
$$Eval)
$$.Not
▁this._enclosing
$$Handl
$$lish
$$short)
$$UsageEstim
$$Availability
$$UsageEstimator
▁raw
▁original
$$Cam
$$gate
$$Section
$$HIT
$$er,
$$arpen
$$ison
▁field_3_
$$Policies
$$Transition
$$paign
$$Assess
$$(char[]
$$TrafficMirror
$$GameSession
$$Provider
$$VirtualInterface
$$Qualification
$$Campaign
$$arpen.
$$Assessment
$$vio
$$(JGitText
$$back
$$Ali
$$Vol
$$alt
$$ript
$$Size,
$$ending
$$.length()
▁Check
$$(ILittleEndianOutput
$$itional
$$vate
$$gr
$$(LittleEndianOutput
$$_SIZE
$$query
▁print
$$lex
▁(p
$$sive
$$s(new
$$Upto
$$sRequest());
}
$$board
▁args[
$$.Append('
▁other)
▁contain
▁ord
▁Write
▁ObjectId
$$ure
$$0x
$$6-0
$$1;

▁Integ
▁_limit
$$gnizer
$$RangeAddress
▁in.readShort();

$$mplem
$$ReservedInstances
$$istance
$$(array
$$(Put
$$Float
$$temp
$$Byte();

$$Alarm
▁srcColumnIndex);

$$Prefix
$$PerValue
▁query
$$AX_
$$CE
$$mod
$$Implem
$$table
▁do
▁System.Not
▁end)
$$Prediction
$$Implemen
$$Import
$$64
$$register
$$issing
$$adata
▁Send
$$Enti
$$Streaming
$$TER
$$SubnetGroup
▁iterator
$$mak
$$mask
$$Reco
$$eric
$$Implemented
▁add(
$$buf
$$Area
$$erator
▁number
▁int[
▁Inter
$$unc
▁(int)
$$(out
$$Span
▁++i)
$$af
$$sor
$$Destination
$$ulture
$$To(
▁sb.append(
▁RamUsageEstimator
▁[
$$Ori
$$Over
$$Dash
$$<E>
$$6_
$$Index;

▁this.m_
$$Short();
}
$$(buffer
$$Journ
$$icate
$$(object
▁@in
▁"2017
$$placement
▁(IOException
$$Monitoring
$$Notebook
$$Trial
$$sRef
$$Null
$$gen
$$group
$$md
$$regate
▁("
$$vert
$$Upload
$$ursor
$$tag
▁string>
$$Int();

$$ID_
▁anchor
$$compare
$$straint
$$ference
$$0);

$$ublish
$$Invalid
$$Style
▁buffer.append(
▁reset
▁field_4_
$$Metadata
▁"2016-0
$$UTF
▁Runtime
▁Equals(object
$$sg
$$son
$$GE
▁Int
▁flag
▁Sp
▁link
▁buffer.toString();
}
$$string(
▁value;

▁key)
$$Activ
$$Method(Method
$$Uri
$$Single
$$(Re
$$(result
$$state
▁setMethod(Method
$$Fill
$$Row,
▁blocks
$$lush
▁W
▁%
$$pic
▁of
▁(EvaluationException
$$Name);
}
$$ody
$$odes
▁prefix
$$LOCK
$$OBJEC
▁ar
$$dQuery
$$iti
$$uld
▁inter
▁"c
$$parent
$$Face
$$Detect
$$E_INVALID
▁compare
$$ToHex(
$$.f
$$ML
▁"'
$$Defin
$$ector
$$reserved
▁1,
▁pos,
$$Terms
$$.con
▁RevFilter
$$UriPattern
▁Operand
$$ground
$$link
$$Impl
$$S3
$$La
$$16
▁pa
▁if(
▁0);
}
$$Encode
▁-1)
▁word
$$Query(
▁otherBuffer
$$ErrorEval
▁(this)
$$flowException();

$$crement
$$Dashboard
▁OperandResolver
$$head
$$ax
$$ditional
$$i.
$$.char
$$erAction
$$str
▁buffer.Append(
$$Files
$$Evaluator
$$(this,
$$itsPerValue
$$Ordinal
$$Map<String,
$$New
$$mi
$$.is
$$TA
$$(w
$$AS
$$alth
$$Region
▁fin
$$s.add(
$$resh
$$Dataset
$$ached
$$Apns
$$Identifier
$$ConnectGateway
$$TrafficPolicy
$$BytesUsed()
$$DirectConnectGateway
▁equals(Object
$$ReceiptRule
▁off,
$$NotebookInstance
$$Activity
$$ION
$$bs
$$LL
$$Arn
▁b)
▁mark
$$valSet
▁result;

$$Namespace
▁group
$$Collection<
▁Sharpen.
$$Photo",
$$Callable
▁"2016-06
$$ditionalFormatting
$$used
$$s",
$$sKey
$$ger
$$ene
$$enten
$$unch
$$oreCase
$$Character
$$ptr
$$ontinue
▁jj_exp
$$_BYTE
$$Scheduled
$$Detail
$$Eval.VALU
$$Aggregate
$$Launch
$$Eval.VALUE_INVALID
$$NG
$$match
$$ker
$$MP
$$Walk
$$VE
▁stream
$$ressed
▁map
▁message
▁16
$$acked
$$ages
$$Thread
$$(name,
▁default:

▁"2017-07
$$sBy
$$CH
$$.value
$$kip
$$==
$$2);

▁(e
▁(index
▁date
$$Type()
$$ConfigurationRequest
$$Mapping
$$.toString()
▁config
$$lear();

$$--;

▁build
▁System.NotImplemented
▁System.NotImplementedException();
}
$$ved
$$.Format
$$AD
$$ally
$$file
$$utf
$$args);

$$IDictionary<string,
$$lang.
$$Property(
▁IllegalArgumentException("Unknown
$$ontinue;

$$Pip
$$Ptr
$$Op
$$nect
$$mt
$$Sm
$$(r
$$okup
$$field_2_
▁Mutable
▁An
$$OutputStream
$$(args)
$$Disk
▁append(
$$entence
$$ad(
$$ib
$$ner
$$..
▁pattern
▁(start
▁it
$$Cont
$$Order
$$loudph
▁(true
$$CloudPhoto",
$$Health
▁Serialize(ILittleEndianOutput
$$Volume
▁"cloudph
$$Definition
▁"2017-07-11",
▁"cloudphoto
$$du
$$.M
$$Simple
$$etach
$$Ingres
$$idr
▁db
$$legate
$$(oth
$$annot
$$param
$$Typed
$$Logging
▁serialize(LittleEndianOutput
▁parent
$$TN
▁Invalid
▁dis
▁ext
$$Progress
▁NB
$$val.
▁file
▁(!args.
▁base(args)
$$lank
$$lear()
▁super(args);

$$-07",
▁Search
▁"2016-06-07",
$$Port
$$Publish
$$user
$$ared
$$ek
$$eb
$$ould
$$fer
$$(a
$$[0]
$$Host
$$archer
$$ang
▁(array
$$root
$$itation
▁Sub
▁label
$$Set(
$$avail
$$FieldLevel
$$ING
▁blocks,
$$TagsFor
▁name)
$$Class.
$$ParseTree
$$GameServer
$$Integration
$$Comparison
$$Invitation
$$/[Repo
$$TypedLink
▁(!args.isEmpty())
$$FieldLevelEncryption
$$map
$$tx
$$buffer
$$Fr
$$Intern
$$Constraint
$$cket
$$Callable();

$$Step
$$bol
$$Man
$$ones
▁part
▁v_
▁clone()
$$site
$$NameRecord
$$GroupRequest
▁IO
$$)).Append("\n");

$$SizeOf
▁ATN
$$Termination
▁field_5_
$$ClusterSnapshot
$$CharSequence
$$.Length;
▁fill
▁Hash
▁upto
$$cond
▁idx
$$ymbol
▁TreeFilter
$$Payload
$$font
$$If
$$(field
$$],
$$alet
$$stream
▁(args.
▁b,
$$ExternSheet
▁cr
▁function
$$Id);

▁super.
$$HexString(
▁char[]
$$parse
$$Encod
$$Record.sid
▁retval
$$Supported
$$ackingArray,
▁(true)
$$alette
$$sume
$$Current
$$oo
$$_index
$$escher
$$etGateway
$$ConditionalFormatting
▁_d
$$Size);

$$tribute
$$.Length)
▁values,
$$ntk
$$ategy
▁ErrorEval.VALUE_INVALID
▁commit
$$Verification
$$InternetGateway
$$ROR
$$Vector
$$ray.Copy
▁work
▁Register
▁")";
}
$$.create
▁context
$$Runtime
▁System.Array.Copy
$$WorkflowExecution
$$ErrorEval();

▁Exp
$$lass
$$(Start
$$bcore
▁(r
▁StringComparison
▁Clone()
$$s.Get
$$Propos
$$Role
$$field_3_
$$RuleContext
$$.remove
▁has
$$iant
▁user
$$bcore.
$$Proposal
▁Formula
▁Enable
$$flag
$$mer
$$.Create
$$Math.
$$\"
▁ptg
$$external
$$ilt
$$Lock
$$boot
$$Collections.
▁analyzer
▁(args.Count
$$RO
$$Cidr
$$base
$$Zones
$$quire
$$Internal
▁vault
▁continue;

$$olution
$$version
$$Modification
▁(block
$$eighted
$$lacement
$$Addresses
$$Predicate
▁NGit.Ap
$$OBJECT_
▁error
$$Cached
$$.Ordinal
$$Decision
$$(@
$$Esc
$$_M
$$_options
$$Full
$$2;

▁slice
▁the
▁find
$$sitive
$$ables
▁this.d
▁libcore.
$$Cells
$$.remaining
$$FilterFactory(Map<String,
$$FilterFactory(IDictionary<string,
$$Classic
$$_BYTES_
$$Plan
$$ses
$$mark
$$.B
$$tal
$$Distance
$$Sort
$$]");

$$Ed
$$_P
$$wer
▁capacity
▁insert
▁Long
$$VpcPeering
$$gnoreCase
▁valuesOffset,
$$Info.
$$IdentityPool
▁buffer.Append("[
$$Mail
$$UsagePlan
$$ResolverRule
▁iterations)
▁iterations;
$$LocalGateway
▁Debug.Assert(
$$Delivery
▁blocksOffset,
$$MPTY
▁StringComparison.Ordinal
▁on
$$cation
$$Option
$$.Count
$$ATE
▁"Get
▁total
▁head
▁@object
▁buffer.Append("[/
$$ial
$$ired
$$)return
$$_1
$$()))
▁DE
▁"";

$$Protect
▁Ptg
$$DataSource
$$tension
$$KeyPair
▁srcOffset,
$$PolicyRequest
$$Assign
$$InstancesRequest
$$indow
$$ORD_
$$clusive
▁Disable
▁NumberEval
$$(array,
$$Pipel
▁K
$$NO
$$Nodes
$$fter
$$Width
$$Bund
$$err
$$antic
▁(a
$$fill
▁+"
▁decision
▁Size
▁Iterator
▁setProtocol
▁rval
$$string>
▁sb.ToString();
}
$$Boost
$$ptg
$$LENG
$$Class().get
$$other.
▁LittleEndian.Put
$$HostedZone
$$anticContext
$$LENGTH
▁5
$$Cancel
$$(get
$$Web
$$ines
▁(arg
$$int)
$$utor
▁delta
$$Index);
}
$$Att
$$Type().
$$Size;

▁sb.toString();
}
▁java.lang.
▁IllegalState
$$s.Length;
$$color
▁ProtocolType.HTTPS
▁listener
$$OnlyBufferException();
}
▁finally
▁libcore.io.
▁temp
$$eg
$$Categ
$$Culture
$$number
$$.0
$$Dec
$$(Protocol
$$_token
$$record
$$inate
$$ale
$$shape
▁(in
▁(short)
▁snapshot
$$Index(
$$Index(index
▁_c
$$cognizer
▁-=
▁walk
$$Comment
$$FileSystem
$$Phrase
$$(float
$$Expression
▁queue
▁(byte)
▁setProtocol(Protocol
▁setProtocol(ProtocolType.HTTPS
$$Placement
$$Dir
$$1token
$$erInstance
$$ingGroup
▁cache
▁Detach
$$istory
▁line
$$Shingle
▁10
▁Ap
$$mote
$$connect
▁Sheet
$$uses
$$.append('\n');

▁LittleEndian.put
$$Alias
$$path
$$.se
$$IM
$$(ValueEval
$$led
▁(obj
$$IndexOutOf
$$s.size()
$$Records
$$omin
$$DEFAULT_
$$HexDump.short
$$Strategy
$$gor
$$.size()
$$Su
$$Increment
$$letion
$$aton
▁scr
$$String(String
$$Prop
$$s[0]
▁Num
▁long[]
$$omaton
$$Any
▁IllegalArgumentException
▁grow
$$URL
$$TYP
▁System.ArgumentException("Unknown
$$GlobalReplicationGroup
$$ified
$$making
$$itial
▁scratch
▁Copy
▁Constants.
$$SH
$$estore
▁(is
▁bitsPerValue
$$chase
$$child
▁Date
$$urchase
▁DescribeDB
▁Create(TokenStream
$$Clone
$$.length);

$$Transport
▁create(TokenStream
$$AttributesRequest
$$ERROR
$$Properties
$$parator
▁"2018
▁location
$$(i);

$$ucene
▁ByteBuffer
$$Bounds
▁Span
$$HealthCheck
$$uint)
$$dic
$$.size
$$IP
$$Solution
$$1[i]
$$Hum
$$Found
$$team
$$ship
$$Rect
▁Simple
$$s.Count
$$ocab
$$(int[]
▁arg0,
$$Cell(
$$.Length;

$$MapClass.
$$Workteam
$$ithm
▁Array.Copy
$$Profiles
▁length)
$$Pointer
$$Matchmaking
$$DocumentClassi
$$TransitGatewayRouteTable
$$EmailIdentity
$$NetworkInterface
$$Membership
$$Finding
$$Journey
$$ClassicLink
$$DeliveryStream
$$Assignment
$$gorithm
$$Human
▁Attach
$$.");

$$T);

$$"+
$$History
$$eration
▁"/
$$escription
▁modify
▁ram
▁Ab
▁Raw
$$RevFilter
$$Left
▁CellRangeAddress
$$Boolean(args,
$$Old
$$.format
$$IO
$$(Object
$$LD
$$Y_
$$ariant
▁repo
$$rndQuery
$$idx
▁String[]
▁la
▁Add(
$$JobFlow
$$Transfer
▁java.nio.Read
▁input,
$$locate
$$.NUM_BYTES_
▁InvalidOperation
▁SizeOf
▁Buffer
▁load
$$Push
$$s();

$$Ret
$$Ren
$$ide
$$.IN
$$.term
$$(BytesRef
$$]/
▁ve
$$ild(
$$Id;

▁start;

▁length);

▁args):
$$URIish
▁spec
$$uri
$$hc
$$ific
$$pattern
$$).Append("\n");

$$ke
$$(short
$$10
$$Stat
$$sic
$$Content
▁Cancel
▁_in
▁executeModify
▁Invoke<Modify
$$argin
$$lauses
▁false);

▁value;
}
$$MessageFormat
$$ONE
$$zero
▁dstOffset,
▁NGit.
▁ErrorEval.VALUE_INVALID;

$$FilterFactory(Map<String,String>
$$sm
$$Cal
$$o]
$$ply
$$.sub
$$[offset
$$BLE
$$lem
$$lector
$$ant
▁(@
▁sz
$$verse
▁this.field
$$.length)
$$imal
$$FirstRow
▁expected
$$java.util.
▁Boolean
▁IntervalSet
▁java.lang.String
$$dicated
▁Format
$$Password
$$ed(
$$vir
$$vision
$$onment
$$lease
$$change
$$Eng
▁this.f
$$ValueSource
$$(int)
▁Merge
▁string[]
▁Ac
▁srcCell
$$Algorithm
▁4;

$$s.length;
$$Processor
▁NGit.Api.
▁libcore.io.SizeOf
$$vironment
▁Comp
▁Exception("
$$ia
$$+"
$$anges
▁clone
$$illi
▁executePut
▁Invoke<Put
$$(bytes
$$()));

$$CharBuffer
$$CharArray
$$.Length);
}
$$Analyzer
▁2;

▁buffer.append("[
$$workbook
$$s[i].
▁use
$$Filter(input);
}
$$(repo);
}
$$(other
$$sp
$$pg
$$mis
$$[i];

$$3D
$$Folder
$$riptions
▁version
▁(v
▁(value
▁skip
▁font
▁"]
▁"<
▁table
▁info
▁CF
$$reset
$$Ident
$$Record();

▁width
$$.length);
}
$$Worker
$$paces
$$OnPre
$$iled
▁buffer.append("[/
▁id)
$$ClientAnchor
$$SecurityGroupIngres
▁log
$$(path
$$VpnGateway
$$(bool
▁jj_expentries
$$ooter
$$c.
$$Slice
$$(start
$$[1
$$Body
$$write
$$4.
$$&&
$$onom
$$licy
▁operand
$$Resources
$$rie
▁(get
$$field_4_
▁MAX_
▁e);

$$andard
▁(!(o
▁@out
▁in.readUShort();

$$output
▁level
$$Skip
$$(name);

$$Private
$$Type.POST);
}
$$Visib
$$Handler
▁RuntimeException("
▁setMethod(MethodType.POST);
}
▁DEFAULT_
$$onomy
$$cast
$$asic
$$stic
$$OK
$$mary
$$.add
$$Delta
$$Test
$$Meet
$$LA
$$Bro
$$Fpg
$$7_
$$lip
$$Insi
▁(char
▁(result
$$InstanceRequest
$$dee
▁Doc
▁fra
▁StringUtil.
▁msg
$$Value)
▁Detect
$$Atten
▁|=
▁array,
▁0x00
$$Alt
▁-1;
}
$$ClientCertificate
$$expected
$$Documentation
$$TransitGatewayMulti
$$StackSet
$$EmailTemplate
▁object)
▁out.writeShort(get
▁MethodType.POST
▁Grow
$$VpcEndpointConnection
$$VpcEndpointService
$$Deliverability
$$TrafficMirrorFilter
$$vious
$$ImportJob
$$TrialComponent
$$DirectConnectGatewayAssociation
$$iltin
$$Pipeline
$$mises
$$OnPremises
$$Meeting
$$Fpga
$$Insight
$$TransitGatewayMulticast
▁MethodType.POST;
}
▁alt
$$ues
$$s");

$$.compare
$$DI
$$='
$$=").append(
$$aled
$$InBytes
▁s)
▁clear()
$$Under
▁tab
▁get(int
▁DescribeCluster
$$.get(
$$Round
$$Size()
▁Match
▁e.get
▁Pred
$$lay
▁Next
$$this.
▁")");

▁sealed
▁java.nio.ByteBuffer
▁out1.WriteByte(
$$PropertyID
$$Next()
▁append
$$Adap
$$Filter(input,
$$Tracking
$$.Append('\n');

▁contains(
▁Numeric
▁^
▁utf
▁escher
$$source
$$supp
$$Non
$$ln
$$.Remove
$$.Compare
$$tten
$$Draw
$$Sum
$$Try
$$be
$$>(
$$=0
$$iness
$$etch
▁op
$$ritten
▁(o
▁(new
▁code
$$unk
▁mode
$$(b,
$$(block
$$Lookup
$$Acl
$$Interconnect
▁out.writeInt(
$$lanation
$$Command(repo);
}
$$NetworkAcl
$$SkillGroup
$$Children
$$Hashtable
▁8)
$$Workspaces
▁RamUsageEstimator.NUM_BYTES_
$$.contain
$$hcp
$$supported
▁7
$$rule
$$cate
$$sq
$$tra
$$DFA
$$EAD
$$Has
$$Init
▁over
$$Request());
}
▁i;

▁stat
▁target
$$Dedicated
▁getRecord
$$alse);

$$tener.
$$boolean
$$DBParameterGroup
▁in1.ReadUShort();

$$Exception(e
$$(long[]
$$raph
▁evaluate(int
▁Evaluate(int
$$Escape
$$PropertyIDMap.
$$ose
$$iew
$$.has
$$)o
▁payload
$$licate
$$Stati
$$ecutor
$$uplicate
$$Consum
▁decode
▁null");

$$Id;
}
$$yper
$$RecordS
$$.get().
$$("/
$$.length;

▁true);

▁supp
$$Transform
▁files
▁field)
▁char[
$$REC
$$REF
$$ORM
$$Disable
▁jj_gen
▁Character
$$Status
$$Changed
$$skip
▁ArrayList<>();

$$Backup
$$Frag
$$module
▁interval
$$ReceiptRuleSet
$$Property(PropertyIDMap.
▁la1token
$$Statistic
$$Property(PropertyIDMap.P
▁or
▁avail
$$Mutable
$$[index
$$revi
$$arn
▁region
$$ores
$$Stage
$$externSheet
▁(count
$$():
▁ctx
▁tag
▁_b
▁range
▁equal
$$ender
$$Short(data,
▁Not
$$TermFreq
$$icture
$$CacheParameterGroup
$$ight
▁out1.WriteInt(
$$LastRow
$$ParseUtils.
▁Fields
$$HexDump.Short
$$(boolean
$$CTION
▁Integer
$$Origin
$$Encoding
▁@object)
$$Engine
$$s.Add(
$$eo
$$ive
$$iterator
$$lr
$$lue
$$.put
$$T>
$$Tables
$$(HSSF
$$Weight
$$LU
$$Hsm
$$Footer
$$wo
$$anization
▁((int
$$Exponent
▁fa
▁Credential
$$Environment
$$s();
}
▁_last
$$s[index
▁0)return
▁field_6_
$$(null
$$SheetName
▁filter
$$(offset
$$ImageAttribute
▁bytesRemaining
$$Ix,
$$LOW
$$Detach
$$(JGitText.Get
$$StreamingDistribution
$$LOCK_SIZE
$$Property(PropertyIDMap.PID_
▁((int)((
$$rr
$$Normal
$$.p
$$.Sub
$$tt
$$_ERROR
$$ond
▁normal
$$Exact
$$At(
$$Lower
$$ical
▁size()
▁sizeInBytes
▁java.nio.Buffer
$$FirstColumn
▁out.writeByte(
▁CharsRef
$$POI
$$byte[]
$$Lexer
$$CHAR
$$letionPolicy
$$AnyObjectId
$$Adapter
$$TryGet
$$oF
$$O_
$$iable
$$.Write
$$_col
$$Break
$$lit
▁pri
▁newArray
▁":
$$upto
▁_first
▁this.p
▁Deregister
$$Set<
$$))return
$$aged
$$Param
▁Null
$$.length;
$$gument
▁Lex
$$Faces
▁end,
$$Script
$$erialization
$$eme
▁subfilter
▁proper
$$Handle
$$PublicKey
$$Logger.
$$Entity
▁OperandResolver.
▁IllegalStateException("
▁RawParseUtils.
▁InvalidOperationException("
$$Broker
▁Row
▁and
$$sure
$$operand
$$fy
$$las
$$Mark
$$Blank
$$String();

$$escape
$$idate
▁dir
▁directory
▁_re
▁mod
$$vault
$$Loop
▁StringBuilder(
$$tributes
▁args,
$$.length,
$$ByteArray
$$pare
▁size)
▁0x0
$$Common
$$config
▁count)
▁3;

$$Enabled
$$Enumerator
$$Credentials
$$Recogn
▁arr
▁Iterator<
▁Compare
$$Pending
$$sFrom
$$ganization
$$mChannel
$$manticContext
$$IAM
$$Sand
$$Sources
$$brevi
$$Ebs
$$Led
$$_C
$$_len
$$YP
$$19
$$2.
$$K;

$$reen
$$reat
$$erce
▁replacement
$$Ind
$$Reserv
$$Store
▁v)
▁(max
▁(pos
▁((byte
▁b.
▁cur
▁"+
$$Conference
$$ollow
$$Recom
$$Id()
▁DescribeReserved
$$Project
$$ValueTo
▁buffer,
▁1;
}
$$Type,
▁rv
$$endar
$$Filter(TokenStream
▁byteBuffer
$$agation
$$Int(data,
$$DBProxy
$$PolicyAssignment
$$SnapshotRequest
$$DomainTransfer
▁seek
▁second
$$ImageBuilder
$$Organization
▁gen
$$AccountSetting
▁minSize)
▁4)
$$Bits
▁precedence
$$Authorizer
$$AddressBook
$$ResolverEndpoint
$$Next())
$$VoiceConnectorTermination
$$RestApi
$$Second
$$boxChannel
$$QualificationType
$$AssessmentRun
$$Entities
$$MonitoringSchedule
$$axonomy
$$LaunchTemplate
$$duct
$$TypedLinkFacet
▁IOUtils.